{
  "version": "1.0",
  "truncation": null,
  "padding": null,
  "added_tokens": [
    {
      "id": 0,
      "content": "[UNK]",
      "single_word": false,
      "lstrip": false,
      "rstrip": false,
      "normalized": false,
      "special": true
    },
    {
      "id": 1,
      "content": "[CLS]",
      "single_word": false,
      "lstrip": false,
      "rstrip": false,
      "normalized": false,
      "special": true
    },
    {
      "id": 2,
      "content": "[SEP]",
      "single_word": false,
      "lstrip": false,
      "rstrip": false,
      "normalized": false,
      "special": true
    },
    {
      "id": 3,
      "content": "[PAD]",
      "single_word": false,
      "lstrip": false,
      "rstrip": false,
      "normalized": false,
      "special": true
    },
    {
      "id": 4,
      "content": "[MASK]",
      "single_word": false,
      "lstrip": false,
      "rstrip": false,
      "normalized": false,
      "special": true
    },
    {
      "id": 5,
      "content": "5",
      "single_word": false,
      "lstrip": false,
      "rstrip": false,
      "normalized": false,
      "special": false
    },
    {
      "id": 6,
      "content": "6",
      "single_word": false,
      "lstrip": false,
      "rstrip": false,
      "normalized": false,
      "special": false
    },
    {
      "id": 7,
      "content": "7",
      "single_word": false,
      "lstrip": false,
      "rstrip": false,
      "normalized": false,
      "special": false
    },
    {
      "id": 8,
      "content": "8",
      "single_word": false,
      "lstrip": false,
      "rstrip": false,
      "normalized": false,
      "special": false
    },
    {
      "id": 9,
      "content": "9",
      "single_word": false,
      "lstrip": false,
      "rstrip": false,
      "normalized": false,
      "special": false
    }
  ],
  "normalizer": null,
  "pre_tokenizer": null,
  "post_processor": null,
  "decoder": null,
  "model": {
    "type": "BPE",
    "dropout": null,
    "unk_token": "[UNK]",
    "continuing_subword_prefix": null,
    "end_of_word_suffix": null,
    "fuse_unk": false,
    "byte_fallback": false,
    "vocab": {
      "[UNK]": 0,
      "[CLS]": 1,
      "[SEP]": 2,
      "[PAD]": 3,
      "[MASK]": 4,
      "\n": 5,
      " ": 6,
      "\"": 7,
      "(": 8,
      ")": 9,
      "*": 10,
      "+": 11,
      ",": 12,
      "-": 13,
      "0": 14,
      "1": 15,
      "2": 16,
      "3": 17,
      "4": 18,
      "5": 19,
      "6": 20,
      "7": 21,
      "8": 22,
      "9": 23,
      ":": 24,
      "a": 25,
      "e": 26,
      "m": 27,
      "n": 28,
      "o": 29,
      "p": 30,
      "r": 31,
      "s": 32,
      "t": 33,
      "w": 34,
      "{": 35,
      "}": 36,
      "\":": 37,
      "\":\"": 38,
      "\",": 39,
      "\"a": 40,
      "\"p": 41,
      "\"}": 42,
      "er": 43,
      "mp": 44,
      "ns": 45,
      "omp": 46,
      "romp": 47,
      "t\":\"": 48,
      "wer": 49,
      "{\"p": 50,
      "\",\"a": 51,
      "\"}\n": 52,
      "nswer": 53,
      "rompt\":\"": 54,
      "{\"prompt\":\"": 55,
      "\",\"answer": 56,
      "\",\"answer\":\"": 57,
      " +": 58,
      " + ": 59,
      " -": 60,
      " - ": 61,
      " *": 62,
      " * ": 63,
      "{\"prompt\":\"(": 64,
      "\",\"answer\":\"1": 65,
      "10": 66,
      "\",\"answer\":\"-": 67,
      ") - ": 68,
      ") + ": 69,
      ") * ": 70,
      "0\"}\n": 71,
      ")\",\"answer\":\"": 72,
      "4\"}\n": 73,
      "2\"}\n": 74,
      "8\"}\n": 75,
      "6\"}\n": 76,
      "5\"}\n": 77,
      "3\"}\n": 78,
      "1\"}\n": 79,
      " - (": 80,
      "7\"}\n": 81,
      "\",\"answer\":\"2": 82,
      " + (": 83,
      "9\"}\n": 84,
      "{\"prompt\":\"8": 85,
      "{\"prompt\":\"6": 86,
      "{\"prompt\":\"2": 87,
      "{\"prompt\":\"4": 88,
      "{\"prompt\":\"7": 89,
      "{\"prompt\":\"3": 90,
      "{\"prompt\":\"9": 91,
      "{\"prompt\":\"5": 92,
      " * (": 93,
      "{\"prompt\":\"1": 94,
      " * 7": 95,
      " + 5": 96,
      " - 8": 97,
      " * 2": 98,
      " + 7": 99,
      " + 4": 100,
      "\",\"answer\":\"3": 101,
      " + 8": 102,
      " + 3": 103,
      " + 6": 104,
      " + 9": 105,
      " * 9": 106,
      ")\",\"answer\":\"1": 107,
      " - 1": 108,
      " - 9": 109,
      " * 4": 110,
      "{\"prompt\":\"((": 111,
      " - 5": 112,
      " * 3": 113,
      " * 8": 114,
      " - 6": 115,
      " - 2": 116,
      " * 6": 117,
      " - 3": 118,
      " + 2": 119,
      " + 1": 120,
      " - 4": 121,
      " - 7": 122,
      " * 1": 123,
      ")\",\"answer\":\"-": 124,
      " * 5": 125,
      "\",\"answer\":\"4": 126,
      "\",\"answer\":\"5": 127,
      " * 10": 128,
      " - 10": 129,
      " + 10": 130,
      "\",\"answer\":\"6": 131,
      "\",\"answer\":\"7": 132,
      "\",\"answer\":\"8": 133,
      "{\"prompt\":\"(5": 134,
      "{\"prompt\":\"(3": 135,
      "\",\"answer\":\"9": 136,
      ")\",\"answer\":\"2": 137,
      "{\"prompt\":\"(2": 138,
      ") - (": 139,
      ") + (": 140,
      "{\"prompt\":\"(7": 141,
      "\",\"answer\":\"-1": 142,
      "{\"prompt\":\"(1": 143,
      "{\"prompt\":\"(8": 144,
      "\",\"answer\":\"10": 145,
      "{\"prompt\":\"(9": 146,
      "{\"prompt\":\"(6": 147,
      "{\"prompt\":\"(4": 148,
      ") * (": 149,
      ")\",\"answer\":\"3": 150,
      "\",\"answer\":\"12": 151,
      "\",\"answer\":\"11": 152,
      "\",\"answer\":\"-2": 153,
      "\",\"answer\":\"14": 154,
      "\",\"answer\":\"13": 155,
      "\",\"answer\":\"-3": 156,
      "\",\"answer\":\"-4": 157,
      ") - 5": 158,
      " + ((": 159,
      "00\"}\n": 160,
      ") + 4": 161,
      " - ((": 162,
      ") * 3": 163,
      ")\",\"answer\":\"4": 164,
      ")\",\"answer\":\"5": 165,
      ") - 4": 166,
      ") + 6": 167,
      ") * 4": 168,
      "\",\"answer\":\"15": 169,
      ") - 6": 170,
      ") + 2": 171,
      "100": 172,
      ") - 8": 173,
      ") * 7": 174,
      ") + 9": 175,
      ") * 6": 176,
      ") - 1": 177,
      ") - 9": 178,
      ") * 5": 179,
      ")\",\"answer\":\"6": 180,
      "80\"}\n": 181,
      ") - 7": 182,
      ") + 5": 183,
      ") + 3": 184,
      ") + 7": 185,
      ") - 3": 186,
      ") * 2": 187,
      " * ((": 188,
      ") + 8": 189,
      "\",\"answer\":\"-5": 190,
      ") * 8": 191,
      ") * 1": 192,
      ") * 9": 193,
      ") - 2": 194,
      "\",\"answer\":\"17": 195,
      ") + 1": 196,
      "20\"}\n": 197,
      "60\"}\n": 198,
      "10\"}\n": 199,
      ")\",\"answer\":\"7": 200,
      ")\",\"answer\":\"-1": 201,
      "40\"}\n": 202,
      ")\",\"answer\":\"8": 203,
      "50\"}\n": 204,
      "\",\"answer\":\"18": 205,
      "\",\"answer\":\"19": 206,
      "\",\"answer\":\"-6": 207,
      ") - 10": 208,
      ")\",\"answer\":\"-2": 209,
      "\",\"answer\":\"16": 210,
      " - (9": 211,
      "{\"prompt\":\"62": 212,
      ")\",\"answer\":\"9": 213,
      "72": 214,
      ") + 10": 215,
      "{\"prompt\":\"51": 216,
      "{\"prompt\":\"95": 217,
      "{\"prompt\":\"((4": 218,
      "{\"prompt\":\"38": 219,
      "{\"prompt\":\"93": 220,
      "{\"prompt\":\"44": 221,
      "{\"prompt\":\"71": 222,
      "44\"}\n": 223,
      "{\"prompt\":\"92": 224,
      "{\"prompt\":\"17": 225,
      ")\",\"answer\":\"11": 226,
      "{\"prompt\":\"34": 227,
      "\",\"answer\":\"-7": 228,
      "{\"prompt\":\"81": 229,
      "{\"prompt\":\"89": 230,
      "{\"prompt\":\"21": 231,
      "{\"prompt\":\"83": 232,
      "{\"prompt\":\"40": 233,
      " * (8": 234,
      ")\",\"answer\":\"-3": 235,
      "28\"}\n": 236,
      "{\"prompt\":\"36": 237,
      "40": 238,
      ") * 10": 239,
      "{\"prompt\":\"60": 240,
      "{\"prompt\":\"47": 241,
      "{\"prompt\":\"86": 242,
      "{\"prompt\":\"69": 243,
      "{\"prompt\":\"77": 244,
      "{\"prompt\":\"54": 245,
      "{\"prompt\":\"100": 246,
      " + (2": 247,
      "{\"prompt\":\"67": 248,
      "{\"prompt\":\"45": 249,
      "{\"prompt\":\"((3": 250,
      " + (6": 251,
      "{\"prompt\":\"80": 252,
      "{\"prompt\":\"87": 253,
      "{\"prompt\":\"65": 254,
      "{\"prompt\":\"23": 255,
      "{\"prompt\":\"56": 256,
      "{\"prompt\":\"11": 257,
      "48\"}\n": 258,
      "56\"}\n": 259,
      " - (2": 260,
      "{\"prompt\":\"24": 261,
      "{\"prompt\":\"28": 262,
      "{\"prompt\":\"29": 263,
      "{\"prompt\":\"72": 264,
      "{\"prompt\":\"76": 265,
      " - (5": 266,
      "{\"prompt\":\"25": 267,
      "{\"prompt\":\"55": 268,
      "19": 269,
      "36\"}\n": 270,
      "{\"prompt\":\"68": 271,
      "{\"prompt\":\"20": 272,
      "{\"prompt\":\"42": 273,
      "{\"prompt\":\"75": 274,
      "{\"prompt\":\"96": 275,
      "88\"}\n": 276,
      "{\"prompt\":\"53": 277,
      "{\"prompt\":\"58": 278,
      "{\"prompt\":\"13": 279,
      "11": 280,
      "47": 281,
      "{\"prompt\":\"10": 282,
      " - (3": 283,
      " - (6": 284,
      " + (3": 285,
      "{\"prompt\":\"64": 286,
      "{\"prompt\":\"48": 287,
      "{\"prompt\":\"35": 288,
      "{\"prompt\":\"39": 289,
      "{\"prompt\":\"59": 290,
      "{\"prompt\":\"((9": 291,
      "{\"prompt\":\"84": 292,
      "{\"prompt\":\"85": 293,
      "{\"prompt\":\"66": 294,
      "{\"prompt\":\"14": 295,
      "{\"prompt\":\"16": 296,
      "{\"prompt\":\"((2": 297,
      "04\"}\n": 298,
      "{\"prompt\":\"27": 299,
      "{\"prompt\":\"70": 300,
      "{\"prompt\":\"73": 301,
      "{\"prompt\":\"74": 302,
      "{\"prompt\":\"33": 303,
      "76": 304,
      " + (9": 305,
      "{\"prompt\":\"26": 306,
      "{\"prompt\":\"43": 307,
      "{\"prompt\":\"46": 308,
      "{\"prompt\":\"49": 309,
      "{\"prompt\":\"99": 310,
      " * (2": 311,
      " * (6": 312,
      ")\",\"answer\":\"10": 313,
      ") - ((": 314,
      "77": 315,
      " - (8": 316,
      "{\"prompt\":\"78": 317,
      "{\"prompt\":\"30": 318,
      "{\"prompt\":\"37": 319,
      "{\"prompt\":\"94": 320,
      "\",\"answer\":\"25": 321,
      "{\"prompt\":\"88": 322,
      "{\"prompt\":\"79": 323,
      "{\"prompt\":\"90": 324,
      "{\"prompt\":\"97": 325,
      "24\"}\n": 326,
      "79": 327,
      " + (5": 328,
      "{\"prompt\":\"19": 329,
      "17": 330,
      "30\"}\n": 331,
      " + (8": 332,
      "{\"prompt\":\"22": 333,
      "{\"prompt\":\"18": 334,
      "32\"}\n": 335,
      "{\"prompt\":\"98": 336,
      " * (3": 337,
      "{\"prompt\":\"12": 338,
      "{\"prompt\":\"((5": 339,
      "92\"}\n": 340,
      "{\"prompt\":\"41": 341,
      "{\"prompt\":\"31": 342,
      "{\"prompt\":\"91": 343,
      "{\"prompt\":\"50": 344,
      "{\"prompt\":\"15": 345,
      "46": 346,
      "{\"prompt\":\"61": 347,
      "{\"prompt\":\"57": 348,
      "{\"prompt\":\"((8": 349,
      "\",\"answer\":\"20": 350,
      "{\"prompt\":\"82": 351,
      "{\"prompt\":\"52": 352,
      "72\"}\n": 353,
      "\",\"answer\":\"26": 354,
      "14": 355,
      "78": 356,
      "96\"}\n": 357,
      " * (9": 358,
      "13": 359,
      "71": 360,
      "73": 361,
      " + (4": 362,
      "{\"prompt\":\"32": 363,
      ") + ((": 364,
      "25\"}\n": 365,
      "{\"prompt\":\"63": 366,
      "{\"prompt\":\"((6": 367,
      "08\"}\n": 368,
      "94\"}\n": 369,
      ") * ((": 370,
      "18": 371,
      "26\"}\n": 372,
      "52\"}\n": 373,
      " * (5": 374,
      "12\"}\n": 375,
      "16\"}\n": 376,
      "46\"}\n": 377,
      "1\",\"answer\":\"3": 378,
      "58\"}\n": 379,
      "74": 380,
      "76\"}\n": 381,
      "70\"}\n": 382,
      "90\"}\n": 383,
      ")\",\"answer\":\"13": 384,
      "4\",\"answer\":\"3": 385,
      "75": 386,
      " - (4": 387,
      ")\",\"answer\":\"16": 388,
      "6\",\"answer\":\"2": 389,
      "70": 390,
      "98\"}\n": 391,
      "16": 392,
      "13\"}\n": 393,
      "45\"}\n": 394,
      "89\"}\n": 395,
      "95\"}\n": 396,
      "2\",\"answer\":\"2": 397,
      "82\"}\n": 398,
      "86\"}\n": 399,
      "81\"}\n": 400,
      "12": 401,
      "15": 402,
      "47\"}\n": 403,
      "64\"}\n": 404,
      "7\",\"answer\":\"3": 405,
      "14\"}\n": 406,
      "22\"}\n": 407,
      "34\"}\n": 408,
      "42\"}\n": 409,
      "6\",\"answer\":\"3": 410,
      "83\"}\n": 411,
      "8\",\"answer\":\"3": 412,
      "06\"}\n": 413,
      "0\",\"answer\":\"2": 414,
      "11\"}\n": 415,
      "27\"}\n": 416,
      "54\"}\n": 417,
      "5\",\"answer\":\"2": 418,
      "68\"}\n": 419,
      "7\",\"answer\":\"4": 420,
      "6\",\"answer\":\"4": 421,
      "74\"}\n": 422,
      "7\",\"answer\":\"5": 423,
      "84\"}\n": 424,
      "8\",\"answer\":\"4": 425,
      " * (4": 426,
      "1 * 7": 427,
      "3 + 1": 428,
      "75\"}\n": 429,
      "77\"}\n": 430,
      "91\"}\n": 431,
      "{\"prompt\":\"(38": 432,
      "0\",\"answer\":\"4": 433,
      "2\",\"answer\":\"5": 434,
      "5\",\"answer\":\"5": 435,
      "78\"}\n": 436,
      "{\"prompt\":\"(55": 437,
      "0\",\"answer\":\"3": 438,
      "18\"}\n": 439,
      "1\",\"answer\":\"5": 440,
      "3 - 1": 441,
      "4\",\"answer\":\"2": 442,
      "4\",\"answer\":\"4": 443,
      "53\"}\n": 444,
      "66\"}\n": 445,
      "9\",\"answer\":\"3": 446,
      "\",\"answer\":\"72\"}\n": 447,
      "1\",\"answer\":\"2": 448,
      "41\"}\n": 449,
      "5\",\"answer\":\"6": 450,
      "67\"}\n": 451,
      "7\",\"answer\":\"2": 452,
      "8\",\"answer\":\"2": 453,
      "{\"prompt\":\"(50": 454,
      "{\"prompt\":\"(59": 455,
      "{\"prompt\":\"(30": 456,
      "{\"prompt\":\"(37": 457,
      ") - (3": 458,
      "{\"prompt\":\"(12": 459,
      "21\"}\n": 460,
      "59\"}\n": 461,
      "5\",\"answer\":\"3": 462,
      "93\"}\n": 463,
      "\",\"answer\":\"14\"}\n": 464,
      "{\"prompt\":\"(35": 465,
      "{\"prompt\":\"(39": 466,
      "{\"prompt\":\"(26": 467,
      "05\"}\n": 468,
      "19\"}\n": 469,
      "1 - 5": 470,
      "1\",\"answer\":\"4": 471,
      "23\"}\n": 472,
      "2 - 10": 473,
      "5\",\"answer\":\"4": 474,
      "73\"}\n": 475,
      "8 + 7": 476,
      "8\",\"answer\":\"6": 477,
      "97\"}\n": 478,
      "9\",\"answer\":\"4": 479,
      "\",\"answer\":\"70\"}\n": 480,
      "{\"prompt\":\"(25": 481,
      "\",\"answer\":\"124\"}\n": 482,
      "17\"}\n": 483,
      "2 - 6": 484,
      "2\",\"answer\":\"4": 485,
      "38\"}\n": 486,
      "6 * 6": 487,
      "87\"}\n": 488,
      "9\",\"answer\":\"2": 489,
      "{\"prompt\":\"(20": 490,
      ") + (9": 491,
      "{\"prompt\":\"(78": 492,
      "{\"prompt\":\"(64": 493,
      "{\"prompt\":\"(67": 494,
      "{\"prompt\":\"(49": 495,
      "15\"}\n": 496,
      "1 + 7": 497,
      "1 * 6": 498,
      "35\"}\n": 499,
      "3 * 10": 500,
      "71\"}\n": 501,
      "85\"}\n": 502,
      "\",\"answer\":\"94\"}\n": 503,
      "{\"prompt\":\"(96": 504,
      "{\"prompt\":\"(48": 505,
      "2 + 7": 506,
      "2\",\"answer\":\"6": 507,
      "3\",\"answer\":\"2": 508,
      "39\"}\n": 509,
      "3 + 7": 510,
      "49\"}\n": 511,
      "5 - 9": 512,
      "60": 513,
      "62\"}\n": 514,
      " + 47": 515,
      "1 * 4": 516,
      "1 * 10": 517,
      "1 - 10": 518,
      "20": 519,
      "29\"}\n": 520,
      "2 * 2": 521,
      "3 + 9": 522,
      "3 + 10": 523,
      "3\",\"answer\":\"7": 524,
      "4 + 5": 525,
      "4\",\"answer\":\"5": 526,
      "55\"}\n": 527,
      "51\"}\n": 528,
      "5 + 4": 529,
      "61\"}\n": 530,
      "9 + 10": 531,
      "\",\"answer\":\"18\"}\n": 532,
      "\",\"answer\":\"16\"}\n": 533,
      "\",\"answer\":\"71\"}\n": 534,
      "{\"prompt\":\"(56": 535,
      "\",\"answer\":\"97\"}\n": 536,
      "{\"prompt\":\"(16": 537,
      "{\"prompt\":\"(18": 538,
      "0\",\"answer\":\"5": 539,
      "2 + 5": 540,
      "33\"}\n": 541,
      "3 + 6": 542,
      "3 * 8": 543,
      "43\"}\n": 544,
      "4 + 7": 545,
      "7 - 1": 546,
      "8 + 9": 547,
      "9 - 2": 548,
      "\",\"answer\":\"84\"}\n": 549,
      "\",\"answer\":\"85\"}\n": 550,
      "{\"prompt\":\"(76": 551,
      "{\"prompt\":\"(87": 552,
      "1 - 3": 553,
      "1 - 7": 554,
      "2 * 7": 555,
      "2\",\"answer\":\"3": 556,
      "2 * 9": 557,
      "3 * 6": 558,
      "3\",\"answer\":\"5": 559,
      "57\"}\n": 560,
      "5 + 9": 561,
      "65\"}\n": 562,
      "69\"}\n": 563,
      "79\"}\n": 564,
      "8 + 8": 565,
      "8\",\"answer\":\"5": 566,
      "8 + 10": 567,
      "99\"}\n": 568,
      "9 - 3": 569,
      "9 + 2": 570,
      "9\",\"answer\":\"5": 571,
      "\",\"answer\":\"-10\"}\n": 572,
      " - 96": 573,
      "\",\"answer\":\"82\"}\n": 574,
      "{\"prompt\":\"(27": 575,
      ") + (3": 576,
      "\",\"answer\":\"105\"}\n": 577,
      "{\"prompt\":\"(46": 578,
      ") * (3": 579,
      "03\"}\n": 580,
      "1 * 2": 581,
      "1 * 9": 582,
      "1 - 2": 583,
      "1 * 1": 584,
      "1\",\"answer\":\"6": 585,
      "3 - 9": 586,
      "4 * 2": 587,
      "4 * 4": 588,
      "4 * 10": 589,
      "8 - 8": 590,
      "8 + 6": 591,
      "9 + 8": 592,
      "9 + 9": 593,
      "{\"prompt\":\"(100": 594,
      " - 88": 595,
      " * 26": 596,
      " + 94": 597,
      "\",\"answer\":\"88\"}\n": 598,
      "\",\"answer\":\"98\"}\n": 599,
      ") - (9": 600,
      "{\"prompt\":\"(77": 601,
      "\",\"answer\":\"-14\"}\n": 602,
      ") * (9": 603,
      "\",\"answer\":\"-44\"}\n": 604,
      "02\"}\n": 605,
      "1 - 8": 606,
      "1 + 8": 607,
      "1 - 6": 608,
      "1 * 5": 609,
      "2 - 9": 610,
      "2 * 10": 611,
      "3 * 7": 612,
      "3\",\"answer\":\"3": 613,
      "3 - 5": 614,
      "4 - 2": 615,
      "4 + 1": 616,
      "4\",\"answer\":\"6": 617,
      "5 * 1": 618,
      "5 * 10": 619,
      "8 * 7": 620,
      "9 + 3": 621,
      "9 * 8": 622,
      "\",\"answer\":\"-5\"}\n": 623,
      " - 69": 624,
      "\",\"answer\":\"74\"}\n": 625,
      "{\"prompt\":\"(57": 626,
      "\",\"answer\":\"-11\"}\n": 627,
      "{\"prompt\":\"(17": 628,
      "{\"prompt\":\"(80": 629,
      "\",\"answer\":\"100\"}\n": 630,
      "\",\"answer\":\"102\"}\n": 631,
      "\",\"answer\":\"108\"}\n": 632,
      "1 + 4": 633,
      "1 * 8": 634,
      "1 + 10": 635,
      "2 * 6": 636,
      "3 * 9": 637,
      "3 * 4": 638,
      "3 - 4": 639,
      "3\",\"answer\":\"4": 640,
      "4 + 4": 641,
      "4 * 3": 642,
      "5 * 9": 643,
      "5 - 10": 644,
      "6 + 5": 645,
      "6 + 1": 646,
      "7\",\"answer\":\"6": 647,
      "8 + 5": 648,
      "8 - 4": 649,
      "9 + 1": 650,
      "9 - 10": 651,
      "\",\"answer\":\"2\"}\n": 652,
      "\",\"answer\":\"6\"}\n": 653,
      "\",\"answer\":\"19\"}\n": 654,
      "\",\"answer\":\"-6\"}\n": 655,
      " + 70": 656,
      " - 95": 657,
      "\",\"answer\":\"89\"}\n": 658,
      "\",\"answer\":\"90\"}\n": 659,
      ") + (6": 660,
      ") + (8": 661,
      "{\"prompt\":\"(70": 662,
      "\",\"answer\":\"115\"}\n": 663,
      " + ((3": 664,
      "1 + 6": 665,
      "1 - 1": 666,
      "2 + 8": 667,
      "2 + 1": 668,
      "2\",\"answer\":\"7": 669,
      "31\"}\n": 670,
      "3 + 8": 671,
      "3 + 3": 672,
      "3 - 7": 673,
      "4 * 7": 674,
      "4 * 8": 675,
      "5 + 5": 676,
      "5 - 3": 677,
      "6 + 3": 678,
      "8 * 9": 679,
      "8\",\"answer\":\"14": 680,
      "9 * 10": 681,
      "\",\"answer\":\"7\"}\n": 682,
      "\",\"answer\":\"15\"}\n": 683,
      "\",\"answer\":\"-3\"}\n": 684,
      "\",\"answer\":\"-7\"}\n": 685,
      " + 56": 686,
      " + 75": 687,
      " - 70": 688,
      ") - (8": 689,
      ") + (5": 690,
      "\",\"answer\":\"-12\"}\n": 691,
      "\",\"answer\":\"-15\"}\n": 692,
      "{\"prompt\":\"(40": 693,
      "\",\"answer\":\"129\"}\n": 694,
      "\",\"answer\":\"117\"}\n": 695,
      "\",\"answer\":\"-21\"}\n": 696,
      "\",\"answer\":\"132\"}\n": 697,
      "\",\"answer\":\"133\"}\n": 698,
      " - ((3": 699,
      "09\"}\n": 700,
      "1 + 2": 701,
      "1 - 4": 702,
      "2 - 2": 703,
      "37\"}\n": 704,
      "3 + 4": 705,
      "4 * 9": 706,
      "4 - 4": 707,
      "4 * 1": 708,
      "5 + 6": 709,
      "5 + 1": 710,
      "6 + 9": 711,
      "6 - 2": 712,
      "6\",\"answer\":\"5": 713,
      "7 + 2": 714,
      "8 * 8": 715,
      "8 + 1": 716,
      "\",\"answer\":\"5\"}\n": 717,
      "{\"prompt\":\"(10": 718,
      "\",\"answer\":\"-2\"}\n": 719,
      " * 20": 720,
      " + 80": 721,
      " + 95": 722,
      " - 94": 723,
      "\",\"answer\":\"78\"}\n": 724,
      "\",\"answer\":\"75\"}\n": 725,
      "\",\"answer\":\"83\"}\n": 726,
      ") - (2": 727,
      ") - (4": 728,
      "{\"prompt\":\"(47": 729,
      ") * (2": 730,
      ") * (8": 731,
      "\",\"answer\":\"119\"}\n": 732,
      "1 * 3": 733,
      "2 * 4": 734,
      "2 + 2": 735,
      "200\"}\n": 736,
      "3 - 3": 737,
      "3 * 5": 738,
      "3\",\"answer\":\"8": 739,
      "4 - 1": 740,
      "4 - 9": 741,
      "4 - 3": 742,
      "4 - 10": 743,
      "5 * 7": 744,
      "5 - 8": 745,
      "5 + 8": 746,
      "5 * 4": 747,
      "63\"}\n": 748,
      "7 + 8": 749,
      "7 - 10": 750,
      "8 * 2": 751,
      "8 * 10": 752,
      "9 + 5": 753,
      "9 + 4": 754,
      "9 * 4": 755,
      "9 - 5": 756,
      "9\",\"answer\":\"6": 757,
      "\",\"answer\":\"0\"}\n": 758,
      "\",\"answer\":\"8\"}\n": 759,
      "\",\"answer\":\"3\"}\n": 760,
      "\",\"answer\":\"9\"}\n": 761,
      "\",\"answer\":\"17\"}\n": 762,
      " + 50": 763,
      " - 84": 764,
      " - 87": 765,
      " + 40": 766,
      " - 76": 767,
      " - 100": 768,
      "\",\"answer\":\"92\"}\n": 769,
      "\",\"answer\":\"96\"}\n": 770,
      ") - (5": 771,
      "\",\"answer\":\"104\"}\n": 772,
      "\",\"answer\":\"107\"}\n": 773,
      "\",\"answer\":\"109\"}\n": 774,
      "\",\"answer\":\"122\"}\n": 775,
      "\",\"answer\":\"112\"}\n": 776,
      "\",\"answer\":\"111\"}\n": 777,
      "\",\"answer\":\"-32\"}\n": 778,
      "\",\"answer\":\"-37\"}\n": 779,
      "01\"}\n": 780,
      "0 - 4": 781,
      "1 + 5": 782,
      "1 + 3": 783,
      "2 * 1": 784,
      "3 * 3": 785,
      "4 + 6": 786,
      "4 + 9": 787,
      "4 - 6": 788,
      "4 * 5": 789,
      "400\"}\n": 790,
      "5 - 6": 791,
      "5 * 6": 792,
      "6 - 5": 793,
      "6 * 8": 794,
      "6\",\"answer\":\"6": 795,
      "7 * 5": 796,
      "9 - 8": 797,
      "9 * 9": 798,
      "9 - 1": 799,
      "\",\"answer\":\"10\"}\n": 800,
      " + 76": 801,
      " + 86": 802,
      ")\",\"answer\":\"15": 803,
      " - 15": 804,
      " - 92": 805,
      " * 17": 806,
      "\",\"answer\":\"86\"}\n": 807,
      "\",\"answer\":\"91\"}\n": 808,
      "\",\"answer\":\"99\"}\n": 809,
      "\",\"answer\":\"-13\"}\n": 810,
      "\",\"answer\":\"125\"}\n": 811,
      "\",\"answer\":\"118\"}\n": 812,
      "\",\"answer\":\"-31\"}\n": 813,
      "\",\"answer\":\"-40\"}\n": 814,
      " + ((6": 815,
      "1 + 9": 816,
      "1 + 1": 817,
      "2 + 6": 818,
      "2 - 1": 819,
      "3 * 1": 820,
      "3\",\"answer\":\"14": 821,
      "4 + 3": 822,
      "4 + 2": 823,
      "4 - 7": 824,
      "5 + 10": 825,
      "6 * 2": 826,
      "6 + 4": 827,
      "8 + 4": 828,
      "8 - 1": 829,
      "8 + 2": 830,
      "9 * 2": 831,
      "9 + 6": 832,
      "9 - 4": 833,
      "\",\"answer\":\"-1\"}\n": 834,
      "\",\"answer\":\"29": 835,
      "\",\"answer\":\"28\"}\n": 836,
      ")\",\"answer\":\"19": 837,
      " - 91": 838,
      " - 97": 839,
      " - 57": 840,
      " - 77": 841,
      " + 100": 842,
      "\",\"answer\":\"77\"}\n": 843,
      "\",\"answer\":\"81\"}\n": 844,
      "\",\"answer\":\"-17\"}\n": 845,
      "\",\"answer\":\"103\"}\n": 846,
      ") * (5": 847,
      "\",\"answer\":\"114\"}\n": 848,
      "\",\"answer\":\"113\"}\n": 849,
      " + ((8": 850,
      " - ((5": 851,
      " - ((8": 852,
      "\",\"answer\":\"150\"}\n": 853,
      " * ((3": 854,
      "0 * 9": 855,
      "0 - 2": 856,
      "2 + 4": 857,
      "2 + 9": 858,
      "2 - 5": 859,
      "2 - 3": 860,
      "2 + 10": 861,
      "3 - 8": 862,
      "3 - 6": 863,
      "3\",\"answer\":\"6": 864,
      "5 + 2": 865,
      "5 - 4": 866,
      "6 + 7": 867,
      "6 + 6": 868,
      "7 + 6": 869,
      "7\",\"answer\":\"14": 870,
      "8 - 9": 871,
      "8 - 5": 872,
      "8 * 3": 873,
      "8 - 6": 874,
      "8 * 6": 875,
      "8 - 3": 876,
      "8 - 10": 877,
      "9 * 3": 878,
      "9 * 6": 879,
      "9 * 5": 880,
      "\",\"answer\":\"4\"}\n": 881,
      "\",\"answer\":\"13\"}\n": 882,
      "\",\"answer\":\"110\"}\n": 883,
      "\",\"answer\":\"-9\"}\n": 884,
      "\",\"answer\":\"25\"}\n": 885,
      " + 72": 886,
      " - 75": 887,
      "\",\"answer\":\"76\"}\n": 888,
      "\",\"answer\":\"73\"}\n": 889,
      ") + (4": 890,
      "\",\"answer\":\"-18\"}\n": 891,
      "\",\"answer\":\"-16\"}\n": 892,
      "{\"prompt\":\"(90": 893,
      "\",\"answer\":\"120\"}\n": 894,
      "\",\"answer\":\"121\"}\n": 895,
      "\",\"answer\":\"-20\"}\n": 896,
      "\",\"answer\":\"-28\"}\n": 897,
      "\",\"answer\":\"-23\"}\n": 898,
      "\",\"answer\":\"130\"}\n": 899,
      "\",\"answer\":\"135\"}\n": 900,
      "\",\"answer\":\"139\"}\n": 901,
      "\",\"answer\":\"-30\"}\n": 902,
      " + ((5": 903,
      " * ((9": 904,
      "0 + 6": 905,
      "0 * 8": 906,
      "1 - 9": 907,
      "2 - 8": 908,
      "2 * 3": 909,
      "2 * 5": 910,
      "3 + 2": 911,
      "3 - 10": 912,
      "4 - 8": 913,
      "4 * 6": 914,
      "4 + 10": 915,
      "5 * 8": 916,
      "5 - 2": 917,
      "6 - 8": 918,
      "6 * 4": 919,
      "6 - 3": 920,
      "6 * 1": 921,
      "6 - 10": 922,
      "7 - 8": 923,
      "7 + 3": 924,
      "7 - 3": 925,
      "7 * 10": 926,
      "7 + 10": 927,
      "8 * 1": 928,
      "8 * 5": 929,
      "800\"}\n": 930,
      "9 + 7": 931,
      "9 - 7": 932,
      "\",\"answer\":\"1\"}\n": 933,
      "\",\"answer\":\"-4\"}\n": 934,
      "\",\"answer\":\"23": 935,
      " + 52": 936,
      " - 85": 937,
      " + 89": 938,
      ")\",\"answer\":\"14": 939,
      " - 90": 940,
      " - 62": 941,
      " - 72": 942,
      ")\",\"answer\":\"-5": 943,
      " * 50": 944,
      "\",\"answer\":\"79\"}\n": 945,
      "\",\"answer\":\"93\"}\n": 946,
      ")\",\"answer\":\"20": 947,
      ") + (2": 948,
      ") * (4": 949,
      "\",\"answer\":\"126\"}\n": 950,
      "\",\"answer\":\"-24\"}\n": 951,
      "\",\"answer\":\"-26\"}\n": 952,
      "\",\"answer\":\"-25\"}\n": 953,
      " * ((8": 954,
      "\",\"answer\":\"-63\"}\n": 955,
      "0 + 7": 956,
      "0 + 1": 957,
      "3 - 2": 958,
      "4 + 8": 959,
      "5 * 2": 960,
      "5 - 7": 961,
      "6 * 7": 962,
      "6 - 6": 963,
      "6 + 2": 964,
      "600\"}\n": 965,
      "7 + 7": 966,
      "7 + 4": 967,
      "7 * 3": 968,
      "9 - 6": 969,
      "\",\"answer\":\"-8\"}\n": 970,
      "\",\"answer\":\"-80\"}\n": 971,
      " * 70": 972,
      " - 89": 973,
      " + 60": 974,
      " + 91": 975,
      " + 96": 976,
      ")\",\"answer\":\"100\"}\n": 977,
      " - 60": 978,
      ")\",\"answer\":\"-4": 979,
      "\",\"answer\":\"51\"}\n": 980,
      "\",\"answer\":\"80\"}\n": 981,
      "\",\"answer\":\"95\"}\n": 982,
      ")\",\"answer\":\"23": 983,
      ") - (6": 984,
      "\",\"answer\":\"-22\"}\n": 985,
      "\",\"answer\":\"143\"}\n": 986,
      "\",\"answer\":\"141\"}\n": 987,
      "\",\"answer\":\"131\"}\n": 988,
      " - ((6": 989,
      " - ((9": 990,
      "\",\"answer\":\"154\"}\n": 991,
      " * ((2": 992,
      "\",\"answer\":\"-59\"}\n": 993,
      "0 + 3": 994,
      "0 + 9": 995,
      "2 + 3": 996,
      "3 + 5": 997,
      "3 * 2": 998,
      "5 + 7": 999,
      "5 + 3": 1000,
      "5 * 3": 1001,
      "5 * 5": 1002,
      "6 * 5": 1003,
      "7 - 9": 1004,
      "7 * 1": 1005,
      "8 - 2": 1006,
      "9 * 7": 1007,
      "\",\"answer\":\"12\"}\n": 1008,
      "\",\"answer\":\"11\"}\n": 1009,
      "100\"}\n": 1010,
      " - (78": 1011,
      " - (13": 1012,
      " - 80": 1013,
      " - 86": 1014,
      "\",\"answer\":\"30": 1015,
      " + 34": 1016,
      " + 66": 1017,
      " + 99": 1018,
      ")\",\"answer\":\"12": 1019,
      " - 93": 1020,
      "{\"prompt\":\"((72": 1021,
      " * 30": 1022,
      " - 39": 1023,
      " - 71": 1024,
      " - 78": 1025,
      "\",\"answer\":\"40\"}\n": 1026,
      "\",\"answer\":\"64\"}\n": 1027,
      "\",\"answer\":\"65\"}\n": 1028,
      "\",\"answer\":\"63\"}\n": 1029,
      ")\",\"answer\":\"22": 1030,
      "\",\"answer\":\"-19\"}\n": 1031,
      "\",\"answer\":\"101\"}\n": 1032,
      ")\",\"answer\":\"30": 1033,
      "\",\"answer\":\"128\"}\n": 1034,
      "\",\"answer\":\"-29\"}\n": 1035,
      "\",\"answer\":\"145\"}\n": 1036,
      "\",\"answer\":\"136\"}\n": 1037,
      "\",\"answer\":\"-36\"}\n": 1038,
      "\",\"answer\":\"-47\"}\n": 1039,
      "\",\"answer\":\"-49\"}\n": 1040,
      "\",\"answer\":\"156\"}\n": 1041,
      "\",\"answer\":\"155\"}\n": 1042,
      ")\",\"answer\":\"62\"}\n": 1043,
      " * ((5": 1044,
      "\",\"answer\":\"179\"}\n": 1045,
      "0 - 8": 1046,
      "0 - 9": 1047,
      "0 * 1": 1048,
      "0 * 5": 1049,
      "2 * 8": 1050,
      "2 - 4": 1051,
      "2 - 7": 1052,
      "4 - 5": 1053,
      "6 - 4": 1054,
      "7 - 2": 1055,
      "7 - 7": 1056,
      "8 + 3": 1057,
      " - (46": 1058,
      "\",\"answer\":\"22\"}\n": 1059,
      " + (19": 1060,
      " - 81": 1061,
      " + 74": 1062,
      "\",\"answer\":\"38": 1063,
      " + 85": 1064,
      " + 88": 1065,
      " + 61": 1066,
      " + 64": 1067,
      " + 65": 1068,
      " * 96": 1069,
      "{\"prompt\":\"((17": 1070,
      " - 55": 1071,
      " - 58": 1072,
      " - 73": 1073,
      " - 74": 1074,
      ")\",\"answer\":\"-6": 1075,
      "\",\"answer\":\"50\"}\n": 1076,
      "\",\"answer\":\"58\"}\n": 1077,
      "\",\"answer\":\"106\"}\n": 1078,
      ") * (6": 1079,
      "\",\"answer\":\"116\"}\n": 1080,
      "\",\"answer\":\"144\"}\n": 1081,
      "\",\"answer\":\"137\"}\n": 1082,
      " + ((2": 1083,
      " - ((2": 1084,
      "\",\"answer\":\"151\"}\n": 1085,
      "\",\"answer\":\"-56\"}\n": 1086,
      "\",\"answer\":\"175\"}\n": 1087,
      "07\"}\n": 1088,
      "0 + 4": 1089,
      "0 * 3": 1090,
      "3\",\"answer\":\"18": 1091,
      "6 + 8": 1092,
      "6 - 1": 1093,
      "6 * 10": 1094,
      "6 + 10": 1095,
      "7 + 9": 1096,
      "7 * 9": 1097,
      "7 * 6": 1098,
      "9 * 1": 1099,
      "\",\"answer\":\"180\"}\n": 1100,
      "\",\"answer\":\"160\"}\n": 1101,
      "\",\"answer\":\"-8": 1102,
      "\",\"answer\":\"-10": 1103,
      "\",\"answer\":\"21\"}\n": 1104,
      " - 82": 1105,
      " - 83": 1106,
      " + 71": 1107,
      " + 78": 1108,
      " + 81": 1109,
      " + 30": 1110,
      " + 68": 1111,
      " * 97": 1112,
      ")\",\"answer\":\"1\"}\n": 1113,
      ")\",\"answer\":\"14\"}\n": 1114,
      " - 50": 1115,
      " * 87": 1116,
      " - 63": 1117,
      " - 64": 1118,
      " - 46": 1119,
      " - 79": 1120,
      "\",\"answer\":\"52\"}\n": 1121,
      "\",\"answer\":\"57\"}\n": 1122,
      "\",\"answer\":\"62\"}\n": 1123,
      "\",\"answer\":\"69\"}\n": 1124,
      "\",\"answer\":\"87\"}\n": 1125,
      ")\",\"answer\":\"32": 1126,
      ")\",\"answer\":\"39": 1127,
      "\",\"answer\":\"123\"}\n": 1128,
      "\",\"answer\":\"147\"}\n": 1129,
      "\",\"answer\":\"-34\"}\n": 1130,
      "\",\"answer\":\"-35\"}\n": 1131,
      "\",\"answer\":\"-48\"}\n": 1132,
      "\",\"answer\":\"-43\"}\n": 1133,
      " + ((4": 1134,
      " + ((9": 1135,
      "\",\"answer\":\"159\"}\n": 1136,
      " * ((6": 1137,
      "\",\"answer\":\"-50\"}\n": 1138,
      "\",\"answer\":\"-55\"}\n": 1139,
      "\",\"answer\":\"-53\"}\n": 1140,
      "\",\"answer\":\"-72\"}\n": 1141,
      "280\"}\n": 1142,
      "5 - 1": 1143,
      "5 - 5": 1144,
      "520\"}\n": 1145,
      "7 * 7": 1146,
      "7 * 8": 1147,
      "7 - 4": 1148,
      "7\",\"answer\":\"19": 1149,
      "8 * 4": 1150,
      "8 - 7": 1151,
      "880\"}\n": 1152,
      " - (11": 1153,
      " - (79": 1154,
      " - (74": 1155,
      "\",\"answer\":\"22": 1156,
      "\",\"answer\":\"27\"}\n": 1157,
      " + (47": 1158,
      " + 57": 1159,
      " + 59": 1160,
      " * 21": 1161,
      " * 24": 1162,
      "\",\"answer\":\"33": 1163,
      "\",\"answer\":\"39": 1164,
      " + 84": 1165,
      " + 36": 1166,
      " - 98": 1167,
      " - 99": 1168,
      " * 40": 1169,
      " * 44": 1170,
      "{\"prompt\":\"((76": 1171,
      " - 59": 1172,
      " - 66": 1173,
      " - 68": 1174,
      " + 20": 1175,
      " - 41": 1176,
      " * 15": 1177,
      ")\",\"answer\":\"-44\"}\n": 1178,
      "\",\"answer\":\"44\"}\n": 1179,
      "\",\"answer\":\"42\"}\n": 1180,
      "\",\"answer\":\"45\"}\n": 1181,
      "\",\"answer\":\"56\"}\n": 1182,
      "\",\"answer\":\"68": 1183,
      "\",\"answer\":\"66\"}\n": 1184,
      ")\",\"answer\":\"26\"}\n": 1185,
      "\",\"answer\":\"148\"}\n": 1186,
      "\",\"answer\":\"138\"}\n": 1187,
      "\",\"answer\":\"-38\"}\n": 1188,
      "\",\"answer\":\"-33\"}\n": 1189,
      "\",\"answer\":\"-45\"}\n": 1190,
      "\",\"answer\":\"-41\"}\n": 1191,
      ")\",\"answer\":\"58\"}\n": 1192,
      "\",\"answer\":\"174\"}\n": 1193,
      "\",\"answer\":\"164\"}\n": 1194,
      ")\",\"answer\":\"99\"}\n": 1195,
      ")\",\"answer\":\"117\"}\n": 1196,
      ") - ((3": 1197,
      "0 + 8": 1198,
      "0 * 6": 1199,
      "0 - 3": 1200,
      "0 + 10": 1201,
      "160\"}\n": 1202,
      "320\"}\n": 1203,
      "6 * 3": 1204,
      "6 - 7": 1205,
      "7 + 5": 1206,
      "9 - 9": 1207,
      "9\",\"answer\":\"8": 1208,
      ")\",\"answer\":\"80\"}\n": 1209,
      " - (40": 1210,
      " - (14": 1211,
      " * (72": 1212,
      " * (40": 1213,
      " * (77": 1214,
      " * (79": 1215,
      " - 8)\",\"answer\":\"1": 1216,
      " + 45": 1217,
      "\",\"answer\":\"36": 1218,
      " + 32": 1219,
      " + 35": 1220,
      " + 63": 1221,
      " + 93": 1222,
      ")\",\"answer\":\"18": 1223,
      "{\"prompt\":\"((13": 1224,
      "{\"prompt\":\"((74": 1225,
      " * 31": 1226,
      " * 32": 1227,
      " - 61": 1228,
      " - 29": 1229,
      " - 30": 1230,
      " + 11": 1231,
      " - 43": 1232,
      " - 47": 1233,
      " - 49": 1234,
      " * 18": 1235,
      ")\",\"answer\":\"-10": 1236,
      "\",\"answer\":\"46\"}\n": 1237,
      "\",\"answer\":\"41\"}\n": 1238,
      "\",\"answer\":\"50": 1239,
      "\",\"answer\":\"54\"}\n": 1240,
      "\",\"answer\":\"53\"}\n": 1241,
      "\",\"answer\":\"60\"}\n": 1242,
      ")\",\"answer\":\"26": 1243,
      ")\",\"answer\":\"28": 1244,
      ")\",\"answer\":\"24\"}\n": 1245,
      ")\",\"answer\":\"29\"}\n": 1246,
      ")\",\"answer\":\"34": 1247,
      "\",\"answer\":\"134\"}\n": 1248,
      "\",\"answer\":\"-42\"}\n": 1249,
      "\",\"answer\":\"-46\"}\n": 1250,
      "\",\"answer\":\"152\"}\n": 1251,
      "\",\"answer\":\"158\"}\n": 1252,
      "\",\"answer\":\"-54\"}\n": 1253,
      "\",\"answer\":\"171\"}\n": 1254,
      ")\",\"answer\":\"-17\"}\n": 1255,
      "\",\"answer\":\"-62\"}\n": 1256,
      "\",\"answer\":\"165\"}\n": 1257,
      "\",\"answer\":\"163\"}\n": 1258,
      "\",\"answer\":\"-74\"}\n": 1259,
      ")\",\"answer\":\"105\"}\n": 1260,
      ") + ((8": 1261,
      ")\",\"answer\":\"133\"}\n": 1262,
      "0 + 5": 1263,
      "150\"}\n": 1264,
      "440\"}\n": 1265,
      "5\",\"answer\":\"7": 1266,
      "500\"}\n": 1267,
      "5\",\"answer\":\"19": 1268,
      "6 * 9": 1269,
      "6 - 9": 1270,
      "7 * 4": 1271,
      "7 + 1": 1272,
      "740\"}\n": 1273,
      "9\",\"answer\":\"7": 1274,
      "\",\"answer\":\"110": 1275,
      "\",\"answer\":\"-60\"}\n": 1276,
      ")\",\"answer\":\"8\"}\n": 1277,
      " - (77": 1278,
      "\",\"answer\":\"23\"}\n": 1279,
      " + (72": 1280,
      " + (76": 1281,
      " + (79": 1282,
      " + (18": 1283,
      " + (15": 1284,
      " * (11": 1285,
      " * (47": 1286,
      " * (18": 1287,
      " * (70": 1288,
      " * (16": 1289,
      " + 54": 1290,
      " + 55": 1291,
      " + 5)\",\"answer\":\"1": 1292,
      " - 8 - 6": 1293,
      " * 28": 1294,
      " + 49": 1295,
      " + 4\",\"answer\":\"3": 1296,
      "\",\"answer\":\"35": 1297,
      " + 87": 1298,
      " + 62": 1299,
      " + 90": 1300,
      " * 90": 1301,
      ")\",\"answer\":\"13\"}\n": 1302,
      " - 11": 1303,
      " - 17": 1304,
      "{\"prompt\":\"((19": 1305,
      " - 54": 1306,
      " - 56": 1307,
      " * 3\",\"answer\":\"2": 1308,
      " * 3 * 7": 1309,
      " * 3 * 8": 1310,
      " - 65": 1311,
      " - 25": 1312,
      " - 27": 1313,
      " * 6 * 5": 1314,
      " - 32": 1315,
      " + 18": 1316,
      " - 48": 1317,
      ")\",\"answer\":\"-56\"}\n": 1318,
      "\",\"answer\":\"47\"}\n": 1319,
      " * 100": 1320,
      "\",\"answer\":\"68\"}\n": 1321,
      "\",\"answer\":\"61\"}\n": 1322,
      "\",\"answer\":\"67\"}\n": 1323,
      ")\",\"answer\":\"25": 1324,
      ")\",\"answer\":\"33": 1325,
      ")\",\"answer\":\"35\"}\n": 1326,
      "\",\"answer\":\"127\"}\n": 1327,
      ")\",\"answer\":\"40": 1328,
      ")\",\"answer\":\"44\"}\n": 1329,
      "\",\"answer\":\"153\"}\n": 1330,
      ")\",\"answer\":\"68": 1331,
      ")\",\"answer\":\"63\"}\n": 1332,
      "\",\"answer\":\"-57\"}\n": 1333,
      "\",\"answer\":\"170\"}\n": 1334,
      "\",\"answer\":\"172\"}\n": 1335,
      "\",\"answer\":\"176\"}\n": 1336,
      "\",\"answer\":\"177\"}\n": 1337,
      ")\",\"answer\":\"70\"}\n": 1338,
      ")\",\"answer\":\"85\"}\n": 1339,
      ")\",\"answer\":\"81\"}\n": 1340,
      ")\",\"answer\":\"87\"}\n": 1341,
      "\",\"answer\":\"186\"}\n": 1342,
      "\",\"answer\":\"187\"}\n": 1343,
      "\",\"answer\":\"-64\"}\n": 1344,
      "\",\"answer\":\"-66\"}\n": 1345,
      "\",\"answer\":\"-61\"}\n": 1346,
      "\",\"answer\":\"-69\"}\n": 1347,
      "\",\"answer\":\"169\"}\n": 1348,
      ")\",\"answer\":\"115\"}\n": 1349,
      ") - ((5": 1350,
      "0 - 1": 1351,
      "0 - 5": 1352,
      "0 - 10": 1353,
      "080\"}\n": 1354,
      "250\"}\n": 1355,
      "3\",\"answer\":\"10": 1356,
      "480\"}\n": 1357,
      "560\"}\n": 1358,
      "720\"}\n": 1359,
      "914\"}\n": 1360,
      "\",\"answer\":\"-81\"}\n": 1361,
      ") + 100": 1362,
      ")\",\"answer\":\"0\"}\n": 1363,
      " - (72": 1364,
      " - (19": 1365,
      " - (76": 1366,
      " - (17": 1367,
      " - (16": 1368,
      "\",\"answer\":\"24": 1369,
      "\",\"answer\":\"28": 1370,
      "\",\"answer\":\"20\"}\n": 1371,
      " + (10": 1372,
      " + (11": 1373,
      " + (77": 1374,
      " + (71": 1375,
      " * (10": 1376,
      " * (100": 1377,
      " * (17": 1378,
      " * (14": 1379,
      " * 76": 1380,
      " + 53": 1381,
      " * 22": 1382,
      " * 2 + 1": 1383,
      " * 2) - 6": 1384,
      " + 79": 1385,
      " + 41": 1386,
      " + 43": 1387,
      " + 48": 1388,
      "\",\"answer\":\"30\"}\n": 1389,
      "\",\"answer\":\"34\"}\n": 1390,
      "\",\"answer\":\"33\"}\n": 1391,
      "\",\"answer\":\"31\"}\n": 1392,
      "\",\"answer\":\"39\"}\n": 1393,
      " + 33": 1394,
      " + 37": 1395,
      " + 39": 1396,
      " + 3 * 9": 1397,
      " + 69": 1398,
      " + 6 * 7": 1399,
      " + 6 * 1": 1400,
      " + 92": 1401,
      " + 97": 1402,
      " * 91": 1403,
      ")\",\"answer\":\"11\"}\n": 1404,
      ")\",\"answer\":\"128\"}\n": 1405,
      " - 1 * 9": 1406,
      " * 4\",\"answer\":\"3": 1407,
      "{\"prompt\":\"((100": 1408,
      "{\"prompt\":\"((11": 1409,
      " * 34": 1410,
      " * 38": 1411,
      " * 3 * 4": 1412,
      " * 3 - 2": 1413,
      " * 88": 1414,
      " * 8\",\"answer\":\"4": 1415,
      " * 8) * 4": 1416,
      " - 6 + 2": 1417,
      " - 21": 1418,
      " - 28": 1419,
      " * 6) - 1": 1420,
      " + 21": 1421,
      " + 14": 1422,
      " + 16": 1423,
      " + 17": 1424,
      " - 42": 1425,
      " - 4 * 7": 1426,
      " * 12": 1427,
      ")\",\"answer\":\"-8": 1428,
      ")\",\"answer\":\"-4\"}\n": 1429,
      ")\",\"answer\":\"-6\"}\n": 1430,
      ")\",\"answer\":\"-1\"}\n": 1431,
      ")\",\"answer\":\"-10\"}\n": 1432,
      "\",\"answer\":\"40": 1433,
      "\",\"answer\":\"46": 1434,
      "\",\"answer\":\"49\"}\n": 1435,
      " - 10 + 3": 1436,
      " - 10)\",\"answer\":\"2": 1437,
      "\",\"answer\":\"90": 1438,
      ")\",\"answer\":\"20\"}\n": 1439,
      ")\",\"answer\":\"30\"}\n": 1440,
      "\",\"answer\":\"-27\"}\n": 1441,
      "\",\"answer\":\"142\"}\n": 1442,
      "\",\"answer\":\"146\"}\n": 1443,
      "\",\"answer\":\"149\"}\n": 1444,
      "\",\"answer\":\"-39\"}\n": 1445,
      ")\",\"answer\":\"42": 1446,
      ")\",\"answer\":\"40\"}\n": 1447,
      ")\",\"answer\":\"51\"}\n": 1448,
      "\",\"answer\":\"-51\"}\n": 1449,
      "\",\"answer\":\"173\"}\n": 1450,
      ")\",\"answer\":\"72\"}\n": 1451,
      ")\",\"answer\":\"94\"}\n": 1452,
      ")\",\"answer\":\"92\"}\n": 1453,
      "{\"prompt\":\"51 * 8": 1454,
      ")\",\"answer\":\"116\"}\n": 1455,
      ")\",\"answer\":\"113\"}\n": 1456,
      ")\",\"answer\":\"119\"}\n": 1457,
      ")\",\"answer\":\"-35\"}\n": 1458,
      ") + ((9": 1459,
      "184\"}\n": 1460,
      ")\",\"answer\":\"162\"}\n": 1461,
      "0 * 7": 1462,
      "0 - 7": 1463,
      "156\"}\n": 1464,
      "296\"}\n": 1465,
      "208\"}\n": 1466,
      "3\",\"answer\":\"11": 1467,
      "324\"}\n": 1468,
      "316\"}\n": 1469,
      "7 - 5": 1470,
      "780\"}\n": 1471,
      "760\"}\n": 1472,
      "888\"}\n": 1473,
      "920\"}\n": 1474,
      "904\"}\n": 1475,
      "\",\"answer\":\"-94\"}\n": 1476,
      ") - 100": 1477,
      ")\",\"answer\":\"2\"}\n": 1478,
      ")\",\"answer\":\"3\"}\n": 1479,
      " - (47": 1480,
      " - (75": 1481,
      "\",\"answer\":\"26\"}\n": 1482,
      " + (100": 1483,
      " + (13": 1484,
      " + (75": 1485,
      "{\"prompt\":\"4 * 9": 1486,
      " * (73": 1487,
      " * (12": 1488,
      "{\"prompt\":\"1 + 5": 1489,
      "{\"prompt\":\"1 + 6": 1490,
      " * 77": 1491,
      " * 7 + 5": 1492,
      " * 7 + 9": 1493,
      " + 51": 1494,
      " + 58": 1495,
      " + 5 + 4": 1496,
      " + 5 * 9": 1497,
      " + 5 - 3": 1498,
      " + 5 + 2": 1499,
      " - 8 * 8": 1500,
      " * 23": 1501,
      " * 29": 1502,
      " * 2 * 7": 1503,
      " * 2 * 6": 1504,
      " + 7 - 5": 1505,
      " + 44": 1506,
      " + 46": 1507,
      " + 4\",\"answer\":\"2": 1508,
      "\",\"answer\":\"32\"}\n": 1509,
      "\",\"answer\":\"37\"}\n": 1510,
      "\",\"answer\":\"306\"}\n": 1511,
      " + 38": 1512,
      " + 67": 1513,
      " + 6 + 3": 1514,
      " + 98": 1515,
      " + 9 + 3": 1516,
      " + 9 + 9": 1517,
      " + 9 * 8": 1518,
      " + 9 * 5": 1519,
      " * 9 - 6": 1520,
      ")\",\"answer\":\"19\"}\n": 1521,
      ")\",\"answer\":\"176": 1522,
      " - 16": 1523,
      " - 19": 1524,
      " - 1 - 5": 1525,
      " * 4 + 9": 1526,
      " * 4 + 2": 1527,
      " * 41\",\"answer\":\"3": 1528,
      " * 44\",\"answer\":\"4": 1529,
      "{\"prompt\":\"((10": 1530,
      "{\"prompt\":\"((79": 1531,
      "{\"prompt\":\"((78": 1532,
      "{\"prompt\":\"((73": 1533,
      " - 52": 1534,
      " - 5 * 9": 1535,
      " - 5 - 6": 1536,
      " * 3 + 7": 1537,
      " * 3) + 4": 1538,
      " * 38\",\"answer\":\"3": 1539,
      " * 83": 1540,
      " * 8 - 8": 1541,
      " - 2)\",\"answer\":\"6": 1542,
      " * 66": 1543,
      " * 6 - 8": 1544,
      " * 6 - 1": 1545,
      " - 31": 1546,
      " - 35": 1547,
      " - 36": 1548,
      " - 3 - 5": 1549,
      " + 22": 1550,
      " + 24": 1551,
      " + 2 * 8": 1552,
      " + 2 * 5": 1553,
      " + 13": 1554,
      " + 1 * 1": 1555,
      " - 44": 1556,
      " - 45": 1557,
      " * 16": 1558,
      " * 19": 1559,
      " * 1 + 6": 1560,
      " * 1 - 5": 1561,
      ")\",\"answer\":\"-5\"}\n": 1562,
      " * 53": 1563,
      "\",\"answer\":\"43\"}\n": 1564,
      "\",\"answer\":\"55\"}\n": 1565,
      " * 10 + 10": 1566,
      " + 10 - 6": 1567,
      " + 10 - 3": 1568,
      "\",\"answer\":\"76": 1569,
      ")\",\"answer\":\"23\"}\n": 1570,
      ") + (73": 1571,
      ") * (72": 1572,
      ")\",\"answer\":\"36": 1573,
      ")\",\"answer\":\"31\"}\n": 1574,
      "\",\"answer\":\"1260\"}\n": 1575,
      "\",\"answer\":\"140\"}\n": 1576,
      ") - 59": 1577,
      " - ((4": 1578,
      " - ((71": 1579,
      ") * 38": 1580,
      ")\",\"answer\":\"46": 1581,
      ")\",\"answer\":\"48": 1582,
      ")\",\"answer\":\"49": 1583,
      ") + 67": 1584,
      "\",\"answer\":\"157\"}\n": 1585,
      ") - 65": 1586,
      ") - 80": 1587,
      ")\",\"answer\":\"66\"}\n": 1588,
      ") - 71": 1589,
      ") - 75": 1590,
      ") - 78": 1591,
      ") * 21": 1592,
      " * ((4": 1593,
      ") + 84": 1594,
      "\",\"answer\":\"-52\"}\n": 1595,
      "\",\"answer\":\"-58\"}\n": 1596,
      ") * 8)\",\"answer\":\"5": 1597,
      ") - 24": 1598,
      ")\",\"answer\":\"70": 1599,
      ")\",\"answer\":\"74\"}\n": 1600,
      "\",\"answer\":\"182\"}\n": 1601,
      "\",\"answer\":\"185\"}\n": 1602,
      "\",\"answer\":\"189\"}\n": 1603,
      "\",\"answer\":\"194\"}\n": 1604,
      "\",\"answer\":\"192\"}\n": 1605,
      "\",\"answer\":\"193\"}\n": 1606,
      "\",\"answer\":\"-68\"}\n": 1607,
      ")\",\"answer\":\"-27\"}\n": 1608,
      "\",\"answer\":\"168\"}\n": 1609,
      "\",\"answer\":\"161\"}\n": 1610,
      "{\"prompt\":\"51 - 2": 1611,
      "{\"prompt\":\"93 - 4": 1612,
      "\",\"answer\":\"-70\"}\n": 1613,
      "\",\"answer\":\"-78\"}\n": 1614,
      "\",\"answer\":\"-73\"}\n": 1615,
      "\",\"answer\":\"-77\"}\n": 1616,
      "{\"prompt\":\"89 + 2": 1617,
      ")\",\"answer\":\"-34\"}\n": 1618,
      ")\",\"answer\":\"-38\"}\n": 1619,
      "{\"prompt\":\"36 * 8": 1620,
      "408\"}\n": 1621,
      "{\"prompt\":\"47 * 6": 1622,
      "{\"prompt\":\"54 * 4": 1623,
      "{\"prompt\":\"96 - 3": 1624,
      "470\"}\n": 1625,
      ")\",\"answer\":\"101\"}\n": 1626,
      ") - ((4": 1627,
      ") - ((8": 1628,
      "176\"}\n": 1629,
      "{\"prompt\":\"12 + 2": 1630,
      "468\"}\n": 1631,
      "\",\"answer\":\"201\"}\n": 1632,
      "784\"}\n": 1633,
      ") + ((3": 1634,
      ") * ((8": 1635,
      ") * ((9": 1636,
      ")\",\"answer\":\"161\"}\n": 1637,
      "{\"prompt\":\"(38 - 1": 1638,
      "0 - 6": 1639,
      "0\",\"answer\":\"7": 1640,
      "000\"}\n": 1641,
      "1\",\"answer\":\"8": 1642,
      "120\"}\n": 1643,
      "128\"}\n": 1644,
      "28": 1645,
      "248\"}\n": 1646,
      "288\"}\n": 1647,
      "232\"}\n": 1648,
      "264\"}\n": 1649,
      "4\",\"answer\":\"10": 1650,
      "456\"}\n": 1651,
      "5\",\"answer\":\"9": 1652,
      "510\"}\n": 1653,
      "528\"}\n": 1654,
      "640\"}\n": 1655,
      "7 - 6": 1656,
      "7\",\"answer\":\"12": 1657,
      "700\"}\n": 1658,
      "710\"}\n": 1659,
      "704\"}\n": 1660,
      "7\",\"answer\":\"25": 1661,
      "940\"}\n": 1662,
      "944\"}\n": 1663,
      "928\"}\n": 1664,
      "\",\"answer\":\"-84\"}\n": 1665,
      ")\",\"answer\":\"4\"}\n": 1666,
      " - (10": 1667,
      " - (100": 1668,
      " - (12": 1669,
      "\",\"answer\":\"24\"}\n": 1670,
      "\",\"answer\":\"220\"}\n": 1671,
      " + (40": 1672,
      " + (14": 1673,
      " + (73": 1674,
      " + (12": 1675,
      "{\"prompt\":\"7 + 3": 1676,
      " * (19": 1677,
      " * (76": 1678,
      " * (78": 1679,
      " * (71": 1680,
      " * 7 + 8": 1681,
      " * 7 * 4": 1682,
      " * 7 * 1": 1683,
      " * 7) + 9": 1684,
      " - 8 + 6": 1685,
      " - 8 - 7": 1686,
      " - 8) + 5": 1687,
      " * 2 + 5": 1688,
      " * 2 * 2": 1689,
      " * 2 - 1": 1690,
      " * 2 * 3": 1691,
      " * 2) - 1": 1692,
      " + 7 * 9": 1693,
      " + 42": 1694,
      " + 4 * 7": 1695,
      " + 4 - 9": 1696,
      " + 4)\",\"answer\":\"2": 1697,
      " + 4) * 5": 1698,
      " + 4) - 7": 1699,
      "\",\"answer\":\"36\"}\n": 1700,
      "\",\"answer\":\"324\"}\n": 1701,
      "\",\"answer\":\"325\"}\n": 1702,
      "\",\"answer\":\"353\"}\n": 1703,
      " + 82": 1704,
      " + 83": 1705,
      " + 8 * 7": 1706,
      " + 8 * 10": 1707,
      " + 8) + 9": 1708,
      " + 3 - 6": 1709,
      " + 3 - 4": 1710,
      " + 3)\",\"answer\":\"3": 1711,
      " + 3) * 2": 1712,
      " + 6)\",\"answer\":\"1": 1713,
      " + 6 - 3": 1714,
      " * 98": 1715,
      " * 99": 1716,
      " * 9 + 4": 1717,
      " * 9\",\"answer\":\"5": 1718,
      " * 9) - 8": 1719,
      ")\",\"answer\":\"12\"}\n": 1720,
      ")\",\"answer\":\"15\"}\n": 1721,
      ")\",\"answer\":\"17\"}\n": 1722,
      ")\",\"answer\":\"120\"}\n": 1723,
      ")\",\"answer\":\"148\"}\n": 1724,
      ")\",\"answer\":\"156\"}\n": 1725,
      ")\",\"answer\":\"130\"}\n": 1726,
      ")\",\"answer\":\"126\"}\n": 1727,
      ")\",\"answer\":\"145\"}\n": 1728,
      ")\",\"answer\":\"127\"}\n": 1729,
      ")\",\"answer\":\"121\"}\n": 1730,
      ")\",\"answer\":\"151\"}\n": 1731,
      " - 12": 1732,
      " - 1) + 9": 1733,
      " - 9) + (": 1734,
      " * 42": 1735,
      " * 43": 1736,
      " * 44\",\"answer\":\"3": 1737,
      " * 48\",\"answer\":\"4": 1738,
      "{\"prompt\":\"((71": 1739,
      "{\"prompt\":\"((75": 1740,
      "{\"prompt\":\"((16": 1741,
      " - 53": 1742,
      " - 5) + 2": 1743,
      " - 5) * 7": 1744,
      " * 36": 1745,
      " * 3 - 6": 1746,
      " * 3 - 4": 1747,
      " * 3) - 4": 1748,
      " * 3) * 7": 1749,
      " * 8) + 5": 1750,
      " * 8) - 3": 1751,
      " - 6 + 1": 1752,
      " - 6) - 9": 1753,
      " - 26": 1754,
      " - 2\",\"answer\":\"3": 1755,
      " - 2 + 8": 1756,
      " - 2 * 6": 1757,
      " - 2)\",\"answer\":\"3": 1758,
      " * 6 - 5": 1759,
      " * 6 * 1": 1760,
      " * 67\",\"answer\":\"5": 1761,
      " - 37": 1762,
      " - 3 * 7": 1763,
      " - 3) - 5": 1764,
      " + 23": 1765,
      " + 26": 1766,
      " + 29": 1767,
      " + 2 + 4": 1768,
      " + 2 + 8": 1769,
      " + 2) * 4": 1770,
      " + 2) * 1": 1771,
      " + 1 - 3": 1772,
      " + 1) - 1": 1773,
      " - 40": 1774,
      " - 4 * 8": 1775,
      " - 4 * 5": 1776,
      " - 7 + 8": 1777,
      " - 7)\",\"answer\":\"3": 1778,
      " - 7) + 8": 1779,
      " * 1) - 3": 1780,
      ")\",\"answer\":\"-2\"}\n": 1781,
      ")\",\"answer\":\"-3\"}\n": 1782,
      ")\",\"answer\":\"-80\"}\n": 1783,
      ")\",\"answer\":\"-60\"}\n": 1784,
      ")\",\"answer\":\"-46": 1785,
      ")\",\"answer\":\"-45\"}\n": 1786,
      ")\",\"answer\":\"-54\"}\n": 1787,
      " * 5 * 1": 1788,
      " * 5) + 2": 1789,
      " * 56\",\"answer\":\"4": 1790,
      "\",\"answer\":\"48": 1791,
      "\",\"answer\":\"406\"}\n": 1792,
      "\",\"answer\":\"59\"}\n": 1793,
      " * 10 + 1": 1794,
      " * 10 * 10": 1795,
      " - 10) * 4": 1796,
      " + 10 * 1": 1797,
      "\",\"answer\":\"86": 1798,
      ")\",\"answer\":\"25\"}\n": 1799,
      ")\",\"answer\":\"21\"}\n": 1800,
      ") - (15": 1801,
      ") + (14": 1802,
      "{\"prompt\":\"(65 - 9": 1803,
      ")\",\"answer\":\"319": 1804,
      "\",\"answer\":\"1176\"}\n": 1805,
      "\",\"answer\":\"143": 1806,
      ") - 51": 1807,
      " + ((73": 1808,
      ") + 44": 1809,
      ") + 49": 1810,
      ")\",\"answer\":\"43\"}\n": 1811,
      ")\",\"answer\":\"56": 1812,
      ")\",\"answer\":\"50\"}\n": 1813,
      ")\",\"answer\":\"56\"}\n": 1814,
      ")\",\"answer\":\"53\"}\n": 1815,
      ")\",\"answer\":\"57\"}\n": 1816,
      ") + 60": 1817,
      ") + 66": 1818,
      ") - 82": 1819,
      ") - 94": 1820,
      ") - 9)\",\"answer\":\"2": 1821,
      ")\",\"answer\":\"63": 1822,
      ")\",\"answer\":\"60\"}\n": 1823,
      ")\",\"answer\":\"64\"}\n": 1824,
      ")\",\"answer\":\"68\"}\n": 1825,
      ")\",\"answer\":\"61\"}\n": 1826,
      ")\",\"answer\":\"69\"}\n": 1827,
      ") - 73": 1828,
      ") + 55": 1829,
      ") * 8)\",\"answer\":\"-1": 1830,
      ")\",\"answer\":\"73": 1831,
      ")\",\"answer\":\"78": 1832,
      ")\",\"answer\":\"78\"}\n": 1833,
      ")\",\"answer\":\"76\"}\n": 1834,
      ")\",\"answer\":\"71\"}\n": 1835,
      ")\",\"answer\":\"-15\"}\n": 1836,
      ")\",\"answer\":\"-13\"}\n": 1837,
      ")\",\"answer\":\"82\"}\n": 1838,
      ")\",\"answer\":\"86\"}\n": 1839,
      "\",\"answer\":\"184\"}\n": 1840,
      "\",\"answer\":\"195\"}\n": 1841,
      "\",\"answer\":\"199\"}\n": 1842,
      "\",\"answer\":\"-67\"}\n": 1843,
      ")\",\"answer\":\"-24\"}\n": 1844,
      ")\",\"answer\":\"-21\"}\n": 1845,
      "\",\"answer\":\"166\"}\n": 1846,
      ")\",\"answer\":\"95\"}\n": 1847,
      ")\",\"answer\":\"93\"}\n": 1848,
      ")\",\"answer\":\"91\"}\n": 1849,
      "{\"prompt\":\"17 * 1": 1850,
      ")\",\"answer\":\"114\"}\n": 1851,
      ")\",\"answer\":\"118\"}\n": 1852,
      ")\",\"answer\":\"111\"}\n": 1853,
      "{\"prompt\":\"34 + 5": 1854,
      "\",\"answer\":\"-76\"}\n": 1855,
      "\",\"answer\":\"-71\"}\n": 1856,
      "{\"prompt\":\"89 - 10": 1857,
      "402\"}\n": 1858,
      "{\"prompt\":\"60 * 7": 1859,
      "{\"prompt\":\"60 - 4": 1860,
      "{\"prompt\":\"56 + 6": 1861,
      "{\"prompt\":\"28 * 8": 1862,
      "{\"prompt\":\"72 * 8": 1863,
      " - (50 + 7": 1864,
      "{\"prompt\":\"68 * 2": 1865,
      "{\"prompt\":\"13 - 1": 1866,
      "{\"prompt\":\"64 * 9": 1867,
      "{\"prompt\":\"85 - 5": 1868,
      "{\"prompt\":\"14 * 6": 1869,
      "{\"prompt\":\"49 + 6": 1870,
      ")\",\"answer\":\"108\"}\n": 1871,
      ")\",\"answer\":\"106\"}\n": 1872,
      ")\",\"answer\":\"107\"}\n": 1873,
      ") - ((6": 1874,
      "772\"}\n": 1875,
      "\",\"answer\":\"252\"}\n": 1876,
      "{\"prompt\":\"91 - 5": 1877,
      "\",\"answer\":\"264\"}\n": 1878,
      ") * ((2": 1879,
      ") * ((4": 1880,
      "742\"}\n": 1881,
      ")\",\"answer\":\"138\"}\n": 1882,
      ")\",\"answer\":\"165\"}\n": 1883,
      "8\",\"answer\":\"48\"}\n": 1884,
      "5\",\"answer\":\"69\"}\n": 1885,
      "{\"prompt\":\"(50 + 10": 1886,
      "5\",\"answer\":\"30": 1887,
      "9\",\"answer\":\"48\"}\n": 1888,
      "3\",\"answer\":\"24": 1889,
      "{\"prompt\":\"((72 + 1": 1890,
      "1\",\"answer\":\"-2": 1891,
      "148\"}\n": 1892,
      "188\"}\n": 1893,
      "152\"}\n": 1894,
      "2\",\"answer\":\"8": 1895,
      "260\"}\n": 1896,
      "210\"}\n": 1897,
      "240\"}\n": 1898,
      "300\"}\n": 1899,
      "336\"}\n": 1900,
      "312\"}\n": 1901,
      "346\"}\n": 1902,
      "420\"}\n": 1903,
      "450\"}\n": 1904,
      "430\"}\n": 1905,
      "496\"}\n": 1906,
      "426\"}\n": 1907,
      "550\"}\n": 1908,
      "544\"}\n": 1909,
      "508\"}\n": 1910,
      "7 * 2": 1911,
      "744\"}\n": 1912,
      "8\",\"answer\":\"7": 1913,
      "810\"}\n": 1914,
      "856\"}\n": 1915,
      "808\"}\n": 1916,
      "900\"}\n": 1917,
      "980\"}\n": 1918,
      "960\"}\n": 1919,
      "936\"}\n": 1920,
      "\",\"answer\":\"-92\"}\n": 1921,
      "\",\"answer\":\"-96\"}\n": 1922,
      "\",\"answer\":\"-89\"}\n": 1923,
      "\",\"answer\":\"-82\"}\n": 1924,
      "\",\"answer\":\"-83\"}\n": 1925,
      "\",\"answer\":\"-91\"}\n": 1926,
      "\",\"answer\":\"-87\"}\n": 1927,
      ") * 100": 1928,
      ")\",\"answer\":\"6\"}\n": 1929,
      ")\",\"answer\":\"5\"}\n": 1930,
      ")\",\"answer\":\"7\"}\n": 1931,
      ")\",\"answer\":\"9\"}\n": 1932,
      "\",\"answer\":\"240\"}\n": 1933,
      "\",\"answer\":\"250\"}\n": 1934,
      "\",\"answer\":\"240": 1935,
      "\",\"answer\":\"248\"}\n": 1936,
      "\",\"answer\":\"225\"}\n": 1937,
      " + (17": 1938,
      " + (46": 1939,
      " + (78": 1940,
      " + (70": 1941,
      " + (16": 1942,
      "{\"prompt\":\"8 + 8": 1943,
      "{\"prompt\":\"8 + 3": 1944,
      "{\"prompt\":\"4 * 8": 1945,
      "{\"prompt\":\"4 - 3": 1946,
      "{\"prompt\":\"9 * 4": 1947,
      "{\"prompt\":\"5 - 6": 1948,
      " * (46": 1949,
      " * (74": 1950,
      " * (75": 1951,
      " * (15": 1952,
      "{\"prompt\":\"1 * 7": 1953,
      " * 7 + 3": 1954,
      " * 7) + (": 1955,
      " * 7) + 6": 1956,
      " * 7) * 6": 1957,
      " * 7) + 7": 1958,
      " * 7) - 10": 1959,
      " * 77\",\"answer\":\"3": 1960,
      " + 5 + 9": 1961,
      " + 5 * 1": 1962,
      " + 5 - 10": 1963,
      " + 5) * 7": 1964,
      " + 5) * 6": 1965,
      " - 8 + 5": 1966,
      " - 8) + 3": 1967,
      " - 8) + 8": 1968,
      " - 8) * 9": 1969,
      " * 25": 1970,
      " * 2 + 3": 1971,
      " * 2 + 6": 1972,
      " * 2 - 9": 1973,
      " * 2 - 6": 1974,
      " * 2)\",\"answer\":\"2": 1975,
      " * 2) * 7": 1976,
      " * 2) - 7": 1977,
      " * 2) + 8": 1978,
      " * 2) * 1": 1979,
      " * 2)\",\"answer\":\"-1": 1980,
      " * 26\",\"answer\":\"2": 1981,
      " * 25\",\"answer\":\"2": 1982,
      " * 24\",\"answer\":\"2": 1983,
      " + 73": 1984,
      " + 7 - 4": 1985,
      " + 7) * 7": 1986,
      " + 7) * 6": 1987,
      " + 7 + (6": 1988,
      " + 78\",\"answer\":\"14": 1989,
      " + 4 - 7": 1990,
      " + 4 * 5": 1991,
      " + 4) * 4": 1992,
      " + 4) * 2": 1993,
      "\",\"answer\":\"32": 1994,
      " + 8 * 2": 1995,
      " + 8 + 7": 1996,
      " + 8 + 6": 1997,
      " + 8 - 1": 1998,
      " + 8 - 9": 1999,
      " + 8 * 3": 2000,
      " + 8 - 3": 2001,
      " + 8)\",\"answer\":\"2": 2002,
      " + 8) - 6": 2003,
      " + 31": 2004,
      " + 3 + 8": 2005,
      " + 3 + 1": 2006,
      " + 3 * 5": 2007,
      " + 3) - 4": 2008,
      " + 3) + 9": 2009,
      " + 6)\",\"answer\":\"-": 2010,
      " + 9 + 1": 2011,
      " + 9) + 9": 2012,
      " * 9 + 6": 2013,
      " * 9 - 1": 2014,
      " * 9 * 1": 2015,
      " * 9 * 5": 2016,
      " * 9\",\"answer\":\"6": 2017,
      " * 9) + 6": 2018,
      " * 9) * 4": 2019,
      " * 9)\",\"answer\":\"-1": 2020,
      " * 96\",\"answer\":\"4": 2021,
      ")\",\"answer\":\"18\"}\n": 2022,
      ")\",\"answer\":\"110\"}\n": 2023,
      ")\",\"answer\":\"136\"}\n": 2024,
      ")\",\"answer\":\"188\"}\n": 2025,
      ")\",\"answer\":\"198\"}\n": 2026,
      ")\",\"answer\":\"147\"}\n": 2027,
      ")\",\"answer\":\"122\"}\n": 2028,
      ")\",\"answer\":\"159\"}\n": 2029,
      " - 1 + 3": 2030,
      " - 1 * 4": 2031,
      " - 1 - 10": 2032,
      " - 1) - 2": 2033,
      " - 9 - 3": 2034,
      " - 9 + 2": 2035,
      " - 9 + 1": 2036,
      " - 9) - 4": 2037,
      " - 9) + 2": 2038,
      " - 9) + 5": 2039,
      " - 9) + 7": 2040,
      " - 9) * 8": 2041,
      " * 4 * 7": 2042,
      " * 4 * 8": 2043,
      " * 4 * 6": 2044,
      " * 4) + 2": 2045,
      " * 4) - 8": 2046,
      " * 4) * 2": 2047,
      " * 4) * 9": 2048,
      " * 4) - 2": 2049,
      " * 43\",\"answer\":\"3": 2050,
      "{\"prompt\":\"((70": 2051,
      "{\"prompt\":\"((15": 2052,
      " - 5) + 4": 2053,
      " * 39": 2054,
      " * 3 * 3": 2055,
      " * 3)\",\"answer\":\"2": 2056,
      " * 3)\",\"answer\":\"3": 2057,
      " * 3\",\"answer\":\"13": 2058,
      " * 86": 2059,
      " * 8) - 9": 2060,
      " * 82\",\"answer\":\"2": 2061,
      " * 83\",\"answer\":\"7": 2062,
      " * 83\",\"answer\":\"4": 2063,
      " - 6)\",\"answer\":\"-": 2064,
      " - 6 + 10": 2065,
      " - 6) * 4": 2066,
      " - 6) * 9": 2067,
      " - 6) - 2": 2068,
      " - 22": 2069,
      " - 23": 2070,
      " - 24": 2071,
      " - 2 + 3": 2072,
      " - 2 - 10": 2073,
      " - 2 + 10": 2074,
      " - 2) - 5": 2075,
      " - 2)\",\"answer\":\"4": 2076,
      " - 2) + 9": 2077,
      " - 2) * 9": 2078,
      " * 63": 2079,
      " * 6 + 8": 2080,
      " * 6)\",\"answer\":\"1": 2081,
      " * 6) + 2": 2082,
      " * 6) * 5": 2083,
      " * 6) * 8": 2084,
      " * 66\",\"answer\":\"2": 2085,
      " * 62\",\"answer\":\"5": 2086,
      " * 67\",\"answer\":\"2": 2087,
      " - 3 * 5": 2088,
      " - 3)\",\"answer\":\"5": 2089,
      " - 3) * 7": 2090,
      " - 3) + 7": 2091,
      " - 3) - 2": 2092,
      " + 27": 2093,
      " + 28": 2094,
      " + 2 + 5": 2095,
      " + 2 - 9": 2096,
      " + 2 * 4": 2097,
      " + 2 * 10": 2098,
      " + 2 + 10": 2099,
      " + 2)\",\"answer\":\"4": 2100,
      " + 2) + 2": 2101,
      " + 2) + 7": 2102,
      " + 2) * 9": 2103,
      " + 19": 2104,
      " + 1 * 7": 2105,
      " + 1) + 8": 2106,
      " + 16\",\"answer\":\"6": 2107,
      " - 4 * 1": 2108,
      " - 4) + 2": 2109,
      " - 4) + 9": 2110,
      " - 4) + 10": 2111,
      " - 49\",\"answer\":\"2": 2112,
      " - 7 - 5": 2113,
      " - 7 - 2": 2114,
      " - 7 * 6": 2115,
      " - 7 - 7": 2116,
      " - 7) + 5": 2117,
      " - 7) * 2": 2118,
      " * 11": 2119,
      " * 13": 2120,
      " * 1 + 3": 2121,
      " * 1 - 4": 2122,
      " * 1) - 4": 2123,
      " * 1) + 3": 2124,
      ")\",\"answer\":\"-50\"}\n": 2125,
      ")\",\"answer\":\"-47": 2126,
      ")\",\"answer\":\"-72\"}\n": 2127,
      ")\",\"answer\":\"-71": 2128,
      ")\",\"answer\":\"-58\"}\n": 2129,
      ")\",\"answer\":\"-95\"}\n": 2130,
      ")\",\"answer\":\"-68\"}\n": 2131,
      ")\",\"answer\":\"-53\"}\n": 2132,
      ")\",\"answer\":\"-73\"}\n": 2133,
      " * 52": 2134,
      " * 54": 2135,
      " * 5 + 9": 2136,
      " * 5 - 9": 2137,
      " * 5 + 1": 2138,
      " * 5) - 5": 2139,
      " * 5) - 10": 2140,
      " * 54\",\"answer\":\"3": 2141,
      " * 10\",\"answer\":\"3": 2142,
      " * 10 * 4": 2143,
      " * 10 - 2": 2144,
      " * 10) * 5": 2145,
      " * 10)\",\"answer\":\"7": 2146,
      " * 10) - (3": 2147,
      " - 10 * 7": 2148,
      " - 10 - 2": 2149,
      " - 10 + 10": 2150,
      " - 10)\",\"answer\":\"4": 2151,
      " - 10) * 8": 2152,
      " - 10) * 1": 2153,
      " + 10 * 4": 2154,
      " + 10 * 3": 2155,
      "\",\"answer\":\"66": 2156,
      "\",\"answer\":\"7200\"}\n": 2157,
      "\",\"answer\":\"858\"}\n": 2158,
      "\",\"answer\":\"819\"}\n": 2159,
      "{\"prompt\":\"(5 - 3": 2160,
      "\",\"answer\":\"98": 2161,
      "\",\"answer\":\"936\"}\n": 2162,
      "\",\"answer\":\"912\"}\n": 2163,
      ")\",\"answer\":\"28\"}\n": 2164,
      ")\",\"answer\":\"27\"}\n": 2165,
      ")\",\"answer\":\"239\"}\n": 2166,
      ") - (47": 2167,
      ") - (71": 2168,
      ") - (73": 2169,
      ") + (72": 2170,
      ") + (19": 2171,
      "\",\"answer\":\"-19": 2172,
      "\",\"answer\":\"-148\"}\n": 2173,
      "\",\"answer\":\"-165\"}\n": 2174,
      "{\"prompt\":\"(13 * 10": 2175,
      "{\"prompt\":\"(15 - 6": 2176,
      "{\"prompt\":\"(85 + 4": 2177,
      "{\"prompt\":\"(89 * 8": 2178,
      "{\"prompt\":\"(89 * 4": 2179,
      "{\"prompt\":\"(93 - 3": 2180,
      "{\"prompt\":\"(95 + 10": 2181,
      "{\"prompt\":\"(69 - 5": 2182,
      ") * (77": 2183,
      ")\",\"answer\":\"35": 2184,
      ")\",\"answer\":\"34\"}\n": 2185,
      ")\",\"answer\":\"38\"}\n": 2186,
      ")\",\"answer\":\"37\"}\n": 2187,
      "\",\"answer\":\"-294\"}\n": 2188,
      " + ((40": 2189,
      " + ((13": 2190,
      ") + 48": 2191,
      " - ((11": 2192,
      " - ((74": 2193,
      " - ((60": 2194,
      " - ((20": 2195,
      ")\",\"answer\":\"42\"}\n": 2196,
      ")\",\"answer\":\"47\"}\n": 2197,
      ")\",\"answer\":\"486\"}\n": 2198,
      ")\",\"answer\":\"53": 2199,
      ")\",\"answer\":\"52\"}\n": 2200,
      ")\",\"answer\":\"583\"}\n": 2201,
      ") + 61": 2202,
      ") + 6\",\"answer\":\"6": 2203,
      ") + 6) + 1": 2204,
      ") * 49": 2205,
      ") * 4\",\"answer\":\"7": 2206,
      "\",\"answer\":\"1584\"}\n": 2207,
      ") - 64": 2208,
      ") - 86": 2209,
      ") * 6)\",\"answer\":\"5": 2210,
      ") - 19": 2211,
      ") - 18\",\"answer\":\"4": 2212,
      ") - 90": 2213,
      ") - 97": 2214,
      ")\",\"answer\":\"65\"}\n": 2215,
      ") + 31": 2216,
      ") + 35": 2217,
      ") + 39": 2218,
      ") + 70": 2219,
      " * ((11": 2220,
      ") + 8) * 8": 2221,
      ") * 17": 2222,
      ") * 9\",\"answer\":\"4": 2223,
      ")\",\"answer\":\"79\"}\n": 2224,
      ")\",\"answer\":\"736\"}\n": 2225,
      ")\",\"answer\":\"-16\"}\n": 2226,
      ")\",\"answer\":\"84\"}\n": 2227,
      ")\",\"answer\":\"89\"}\n": 2228,
      "\",\"answer\":\"183\"}\n": 2229,
      "\",\"answer\":\"190\"}\n": 2230,
      "\",\"answer\":\"191\"}\n": 2231,
      ")\",\"answer\":\"-22\"}\n": 2232,
      ")\",\"answer\":\"-28\"}\n": 2233,
      ")\",\"answer\":\"-25\"}\n": 2234,
      ")\",\"answer\":\"-23\"}\n": 2235,
      ")\",\"answer\":\"-29\"}\n": 2236,
      "{\"prompt\":\"62 * 7": 2237,
      "{\"prompt\":\"62 + 4": 2238,
      "{\"prompt\":\"62 + 10": 2239,
      ")\",\"answer\":\"90\"}\n": 2240,
      ")\",\"answer\":\"96\"}\n": 2241,
      "724\"}\n": 2242,
      "728\"}\n": 2243,
      "726\"}\n": 2244,
      "727\"}\n": 2245,
      "{\"prompt\":\"51 - 6": 2246,
      "{\"prompt\":\"95 * 4": 2247,
      "{\"prompt\":\"38 - (6": 2248,
      "{\"prompt\":\"92 - 3": 2249,
      "{\"prompt\":\"17 * 3": 2250,
      ")\",\"answer\":\"112\"}\n": 2251,
      "{\"prompt\":\"34 + 1": 2252,
      "{\"prompt\":\"81 + 3": 2253,
      "{\"prompt\":\"81 + 6": 2254,
      "{\"prompt\":\"81 * 9": 2255,
      "{\"prompt\":\"81 - 2": 2256,
      "{\"prompt\":\"89 * 9": 2257,
      "{\"prompt\":\"83 * 7": 2258,
      "{\"prompt\":\"83 + 5": 2259,
      "{\"prompt\":\"83 - 5": 2260,
      ")\",\"answer\":\"-36\"}\n": 2261,
      ")\",\"answer\":\"-33\"}\n": 2262,
      "409\"}\n": 2263,
      "{\"prompt\":\"86 * 9": 2264,
      "{\"prompt\":\"77 + 10": 2265,
      "{\"prompt\":\"54 * 10": 2266,
      "{\"prompt\":\"100 - 8": 2267,
      "{\"prompt\":\"100 * 9": 2268,
      "{\"prompt\":\"100 - 2": 2269,
      "{\"prompt\":\"67 * 8": 2270,
      "{\"prompt\":\"45 - 1": 2271,
      "{\"prompt\":\"80 - 5": 2272,
      "{\"prompt\":\"80 * 3": 2273,
      "{\"prompt\":\"65 * 9": 2274,
      "{\"prompt\":\"65 * 8": 2275,
      "{\"prompt\":\"23 + 2": 2276,
      "{\"prompt\":\"11 - 8": 2277,
      "{\"prompt\":\"11 + 3": 2278,
      "{\"prompt\":\"11 * 9": 2279,
      "{\"prompt\":\"24 - 1": 2280,
      "{\"prompt\":\"24 * 4": 2281,
      "{\"prompt\":\"24 + 1": 2282,
      "{\"prompt\":\"28 + 3": 2283,
      "{\"prompt\":\"29 * 8": 2284,
      "{\"prompt\":\"29 - 10": 2285,
      "{\"prompt\":\"76 * 7": 2286,
      "{\"prompt\":\"76 - 5": 2287,
      "{\"prompt\":\"25 * 7": 2288,
      "{\"prompt\":\"55 - 1": 2289,
      "{\"prompt\":\"20 * 6": 2290,
      "{\"prompt\":\"13 * 4": 2291,
      "478\"}\n": 2292,
      "475\"}\n": 2293,
      "477\"}\n": 2294,
      "{\"prompt\":\"10 - 1": 2295,
      " - (62 + 7": 2296,
      "{\"prompt\":\"64 + 8": 2297,
      "{\"prompt\":\"64 - 2": 2298,
      "{\"prompt\":\"35 + 4": 2299,
      "{\"prompt\":\"39 * 7": 2300,
      "{\"prompt\":\"39 + 9": 2301,
      "{\"prompt\":\"14 + 5": 2302,
      "{\"prompt\":\"16 * 2": 2303,
      "{\"prompt\":\"33 * 9": 2304,
      "762\"}\n": 2305,
      "{\"prompt\":\"26 * 9": 2306,
      "{\"prompt\":\"43 - 1": 2307,
      "{\"prompt\":\"49 + 2": 2308,
      "{\"prompt\":\"99 - 5": 2309,
      "{\"prompt\":\"99 * 5": 2310,
      ")\",\"answer\":\"102\"}\n": 2311,
      ")\",\"answer\":\"103\"}\n": 2312,
      ") - ((9": 2313,
      "776\"}\n": 2314,
      "{\"prompt\":\"78 * 7": 2315,
      "{\"prompt\":\"78 - 2": 2316,
      "\",\"answer\":\"255\"}\n": 2317,
      "{\"prompt\":\"19 * 3": 2318,
      "175\"}\n": 2319,
      "{\"prompt\":\"18 - 1": 2320,
      "{\"prompt\":\"18 * 1": 2321,
      "{\"prompt\":\"12 + 6": 2322,
      "{\"prompt\":\"12 + 1": 2323,
      "782\"}\n": 2324,
      "783\"}\n": 2325,
      ") + ((60": 2326,
      ") * ((6": 2327,
      "1\",\"answer\":\"32\"}\n": 2328,
      ")\",\"answer\":\"134\"}\n": 2329,
      ")\",\"answer\":\"135\"}\n": 2330,
      "4\",\"answer\":\"30": 2331,
      ")\",\"answer\":\"166\"}\n": 2332,
      ")\",\"answer\":\"169\"}\n": 2333,
      "6\",\"answer\":\"28\"}\n": 2334,
      "706\"}\n": 2335,
      "162\"}\n": 2336,
      "2\",\"answer\":\"24\"}\n": 2337,
      "6\",\"answer\":\"34\"}\n": 2338,
      "7\",\"answer\":\"43\"}\n": 2339,
      "0\",\"answer\":\"41\"}\n": 2340,
      "2\",\"answer\":\"57\"}\n": 2341,
      "0\",\"answer\":\"36\"}\n": 2342,
      "4\",\"answer\":\"41\"}\n": 2343,
      "1\",\"answer\":\"28\"}\n": 2344,
      "{\"prompt\":\"(37 + 8": 2345,
      "8\",\"answer\":\"60\"}\n": 2346,
      "2\",\"answer\":\"48\"}\n": 2347,
      "{\"prompt\":\"(67 - 8": 2348,
      "2\",\"answer\":\"62\"}\n": 2349,
      "3\",\"answer\":\"21\"}\n": 2350,
      "3\",\"answer\":\"79": 2351,
      "0\",\"answer\":\"59\"}\n": 2352,
      "{\"prompt\":\"(46 - 8": 2353,
      "1\",\"answer\":\"63\"}\n": 2354,
      "9 + 1) * 9": 2355,
      "8\",\"answer\":\"145\"}\n": 2356,
      "6\",\"answer\":\"51\"}\n": 2357,
      "\",\"answer\":\"1104\"}\n": 2358,
      "0 * 4": 2359,
      "050\"}\n": 2360,
      "004\"}\n": 2361,
      "030\"}\n": 2362,
      "025\"}\n": 2363,
      "0\",\"answer\":\"124\"}\n": 2364,
      "144\"}\n": 2365,
      "136\"}\n": 2366,
      "2\",\"answer\":\"-5": 2367,
      "2\",\"answer\":\"17": 2368,
      "230\"}\n": 2369,
      "268\"}\n": 2370,
      "293\"}\n": 2371,
      "38": 2372,
      "332\"}\n": 2373,
      "392\"}\n": 2374,
      "396\"}\n": 2375,
      "394\"}\n": 2376,
      "326\"}\n": 2377,
      "311\"}\n": 2378,
      "43": 2379,
      "4\",\"answer\":\"7": 2380,
      "4\",\"answer\":\"9": 2381,
      "4\",\"answer\":\"12": 2382,
      "444\"}\n": 2383,
      "448\"}\n": 2384,
      "432\"}\n": 2385,
      "4\",\"answer\":\"20": 2386,
      "458\"}\n": 2387,
      "482\"}\n": 2388,
      "447\"}\n": 2389,
      "454\"}\n": 2390,
      "5\",\"answer\":\"8": 2391,
      "5\",\"answer\":\"11": 2392,
      "5\",\"answer\":\"13": 2393,
      "592\"}\n": 2394,
      "552\"}\n": 2395,
      "534\"}\n": 2396,
      "577\"}\n": 2397,
      "569\"}\n": 2398,
      "650\"}\n": 2399,
      "648\"}\n": 2400,
      "672\"}\n": 2401,
      "696\"}\n": 2402,
      "616\"}\n": 2403,
      "675\"}\n": 2404,
      "7\",\"answer\":\"9": 2405,
      "7\",\"answer\":\"11": 2406,
      "7\",\"answer\":\"17": 2407,
      "750\"}\n": 2408,
      "7\",\"answer\":\"18": 2409,
      "7\",\"answer\":\"20": 2410,
      "7\",\"answer\":\"-18\"}\n": 2411,
      "860\"}\n": 2412,
      "850\"}\n": 2413,
      "8\",\"answer\":\"18": 2414,
      "824\"}\n": 2415,
      "898\"}\n": 2416,
      "864\"}\n": 2417,
      "819\"}\n": 2418,
      "950\"}\n": 2419,
      "992\"}\n": 2420,
      "9\",\"answer\":\"26": 2421,
      "916\"}\n": 2422,
      "958\"}\n": 2423,
      "968\"}\n": 2424,
      "962\"}\n": 2425,
      "108\"}\n": 2426,
      "\",\"answer\":\"-98\"}\n": 2427,
      "\",\"answer\":\"-95\"}\n": 2428,
      " - (71": 2429,
      " - (70": 2430,
      " - (15": 2431,
      "\",\"answer\":\"204\"}\n": 2432,
      "\",\"answer\":\"232\"}\n": 2433,
      "\",\"answer\":\"289\"}\n": 2434,
      "\",\"answer\":\"283\"}\n": 2435,
      "\",\"answer\":\"241\"}\n": 2436,
      "\",\"answer\":\"233\"}\n": 2437,
      " + (74": 2438,
      "{\"prompt\":\"8 * 3": 2439,
      "{\"prompt\":\"6 + 3": 2440,
      "{\"prompt\":\"6 * 3": 2441,
      "{\"prompt\":\"6 * 8": 2442,
      "{\"prompt\":\"6 + 2": 2443,
      "{\"prompt\":\"6 + 1": 2444,
      "{\"prompt\":\"2 + 5": 2445,
      "{\"prompt\":\"2 - 8": 2446,
      "{\"prompt\":\"2 * 2": 2447,
      "{\"prompt\":\"2 + 7": 2448,
      "{\"prompt\":\"2 + 4": 2449,
      "{\"prompt\":\"2 + 3": 2450,
      "{\"prompt\":\"2 * 1": 2451,
      "{\"prompt\":\"4 - 2": 2452,
      "{\"prompt\":\"4 * 1": 2453,
      "{\"prompt\":\"7 * 6": 2454,
      "{\"prompt\":\"3 * 9": 2455,
      "{\"prompt\":\"3 - 4": 2456,
      "{\"prompt\":\"9 - 2": 2457,
      "{\"prompt\":\"9 - 4": 2458,
      "{\"prompt\":\"9 - 7": 2459,
      "{\"prompt\":\"5 + 5": 2460,
      "{\"prompt\":\"5 + 6": 2461,
      "{\"prompt\":\"1 * 6": 2462,
      "{\"prompt\":\"1 + 2": 2463,
      "{\"prompt\":\"1 * 1": 2464,
      " * 79": 2465,
      " * 7 - 9": 2466,
      " * 7 * 8": 2467,
      " * 7 - 6": 2468,
      " * 7 - 2": 2469,
      " * 7 - 3": 2470,
      " * 7\",\"answer\":\"5": 2471,
      " * 7)\",\"answer\":\"5": 2472,
      " * 7) - 4": 2473,
      " * 7) + 5": 2474,
      " * 7) + 1": 2475,
      " * 75\",\"answer\":\"5": 2476,
      " * 72\",\"answer\":\"6": 2477,
      " * 72\",\"answer\":\"3": 2478,
      " * 79\",\"answer\":\"5": 2479,
      " * 72\",\"answer\":\"7": 2480,
      " * 76\",\"answer\":\"5": 2481,
      " + 5 * 7": 2482,
      " + 5 + 3": 2483,
      " + 5 - 5": 2484,
      " + 5 * 6": 2485,
      " + 5 + 1": 2486,
      " + 5 + 10": 2487,
      " + 5)\",\"answer\":\"6": 2488,
      " + 5) * 1": 2489,
      " + 5) - 2": 2490,
      " - 8 * 7": 2491,
      " - 8 - 1": 2492,
      " - 8 - 9": 2493,
      " - 8 * 4": 2494,
      " - 8 - 3": 2495,
      " - 8 - 10": 2496,
      " - 8 + 10": 2497,
      " - 8)\",\"answer\":\"2": 2498,
      " - 8) - 1": 2499,
      " - 8) * ((": 2500,
      " - 8 - (4": 2501,
      " - 8\",\"answer\":\"25\"}\n": 2502,
      " * 2 * 9": 2503,
      " * 2 - 3": 2504,
      " * 2 * 5": 2505,
      " * 2 * 10": 2506,
      " * 2\",\"answer\":\"-1": 2507,
      " * 2) + 4": 2508,
      " * 2) * 3": 2509,
      " * 2)\",\"answer\":\"4": 2510,
      " * 2) + 6": 2511,
      " * 2) - 8": 2512,
      " * 2) + 3": 2513,
      " * 2) + 7": 2514,
      " * 21\",\"answer\":\"5": 2515,
      " * 28\",\"answer\":\"6": 2516,
      " * 2) - (8": 2517,
      " * 27\",\"answer\":\"19": 2518,
      " + 7 * 7": 2519,
      " + 7 - 8": 2520,
      " + 7 + 4": 2521,
      " + 7 * 3": 2522,
      " + 7 * 6": 2523,
      " + 7 - 7": 2524,
      " + 7) * 3": 2525,
      " + 7) - 4": 2526,
      " + 7) + 9": 2527,
      " + 7) - 9": 2528,
      " + 7) * 5": 2529,
      " + 7) + 3": 2530,
      " + 7) * 8": 2531,
      " + 7) + 1": 2532,
      " + 4 + 5": 2533,
      " + 4 + 7": 2534,
      " + 4)\",\"answer\":\"1": 2535,
      " + 4 + 1": 2536,
      " + 4 - 4": 2537,
      " + 4) - 5": 2538,
      " + 4) * 3": 2539,
      " + 4)\",\"answer\":\"5": 2540,
      " + 4) - 4": 2541,
      " + 4) - 8": 2542,
      " + 4) - 2": 2543,
      " + 4) + 1": 2544,
      " + 4 + 70": 2545,
      " + 4\",\"answer\":\"81\"}\n": 2546,
      "\",\"answer\":\"38\"}\n": 2547,
      "\",\"answer\":\"35\"}\n": 2548,
      "\",\"answer\":\"340\"}\n": 2549,
      "\",\"answer\":\"328\"}\n": 2550,
      "\",\"answer\":\"316\"}\n": 2551,
      "\",\"answer\":\"327\"}\n": 2552,
      "\",\"answer\":\"384\"}\n": 2553,
      "\",\"answer\":\"378\"}\n": 2554,
      " + 8 + 4": 2555,
      " + 8) + 4": 2556,
      " + 8)\",\"answer\":\"5": 2557,
      " + 8) * 4": 2558,
      " + 8) + 2": 2559,
      " + 8) - 8": 2560,
      " + 8) * 6": 2561,
      " + 8) * 5": 2562,
      " + 8)\",\"answer\":\"6": 2563,
      " + 3 * 1": 2564,
      " + 3)\",\"answer\":\"2": 2565,
      " + 3) + 4": 2566,
      " + 3) * 4": 2567,
      " + 3) - 1": 2568,
      " + 3) * 1": 2569,
      " + 3) - 10": 2570,
      " + 3 + (9": 2571,
      " + 31\",\"answer\":\"5": 2572,
      " + 34 * 10": 2573,
      " + 36\",\"answer\":\"6": 2574,
      " + 6 * 2": 2575,
      " + 6 + 4": 2576,
      " + 6 * 4": 2577,
      " + 6) + 4": 2578,
      " + 6) * 5": 2579,
      " + 6) + 5": 2580,
      " + 6 + (5": 2581,
      " + 9 * 2": 2582,
      " + 9 * 6": 2583,
      " + 9 * 1": 2584,
      " + 9 - 10": 2585,
      " + 9) - 4": 2586,
      " + 9) + 6": 2587,
      " + 9) - 7": 2588,
      " + 9) * 2": 2589,
      " + 9) - 2": 2590,
      " * 95": 2591,
      " * 9 - 5": 2592,
      " * 9 * 3": 2593,
      " * 9 - 7": 2594,
      " * 9)\",\"answer\":\"-": 2595,
      " * 9) + 9": 2596,
      " * 91\",\"answer\":\"3": 2597,
      " * 93\",\"answer\":\"6": 2598,
      ")\",\"answer\":\"110": 2599,
      ")\",\"answer\":\"10\"}\n": 2600,
      ")\",\"answer\":\"180\"}\n": 2601,
      ")\",\"answer\":\"160\"}\n": 2602,
      ")\",\"answer\":\"144\"}\n": 2603,
      ")\",\"answer\":\"132\"}\n": 2604,
      ")\",\"answer\":\"152\"}\n": 2605,
      ")\",\"answer\":\"146\"}\n": 2606,
      ")\",\"answer\":\"176\"}\n": 2607,
      ")\",\"answer\":\"189\"}\n": 2608,
      ")\",\"answer\":\"182\"}\n": 2609,
      ")\",\"answer\":\"186\"}\n": 2610,
      ")\",\"answer\":\"154\"}\n": 2611,
      ")\",\"answer\":\"141\"}\n": 2612,
      ")\",\"answer\":\"171\"}\n": 2613,
      ")\",\"answer\":\"129\"}\n": 2614,
      " - 13": 2615,
      " - 18": 2616,
      " - 1 - 6": 2617,
      " - 1 - 2": 2618,
      " - 1 + 2": 2619,
      " - 1) - 5": 2620,
      " - 1) * 4": 2621,
      " - 1) * 5": 2622,
      " - 1) - 3": 2623,
      " - 1) * 1": 2624,
      " - 17\",\"answer\":\"2": 2625,
      " - 14\",\"answer\":\"6": 2626,
      " - 9 - 8": 2627,
      " - 9\",\"answer\":\"3": 2628,
      " - 9 + 3": 2629,
      " - 9 * 9": 2630,
      " - 9 - 1": 2631,
      " - 9 - 9": 2632,
      " - 9) - 9": 2633,
      " - 9) * 2": 2634,
      " - 9) + 8": 2635,
      " - 9) + 1": 2636,
      " * 4 + 4": 2637,
      " * 4 + 8": 2638,
      " * 4 + 3": 2639,
      " * 4 + 6": 2640,
      " * 4 - 5": 2641,
      " * 4\",\"answer\":\"-3": 2642,
      " * 4) - 5": 2643,
      " * 4) + 6": 2644,
      " * 4) * 4": 2645,
      " * 4) - 6": 2646,
      " * 4) - 1": 2647,
      " * 4) - 10": 2648,
      " * 46\",\"answer\":\"3": 2649,
      " * 47\",\"answer\":\"2": 2650,
      " * 48\",\"answer\":\"2": 2651,
      "{\"prompt\":\"((77": 2652,
      "{\"prompt\":\"((18": 2653,
      "{\"prompt\":\"((12": 2654,
      " - 5 + 7": 2655,
      " - 5 + 6": 2656,
      " - 5 + 9": 2657,
      " - 5 * 3": 2658,
      " - 5 * 8": 2659,
      " - 5) - 5": 2660,
      " - 5) * 3": 2661,
      " - 5) - 4": 2662,
      " - 5) - 6": 2663,
      " - 5) * 6": 2664,
      " - 5) - 7": 2665,
      " - 5) + 5": 2666,
      " - 5 * (8": 2667,
      " - 5 + (2": 2668,
      " - 59\",\"answer\":\"3": 2669,
      " - 58\",\"answer\":\"2": 2670,
      " * 3 + 9": 2671,
      " * 3) * 1": 2672,
      " * 37\",\"answer\":\"3": 2673,
      " * 8 + 1": 2674,
      " * 8\",\"answer\":\"7": 2675,
      " * 8) - 2": 2676,
      " * 87\",\"answer\":\"2": 2677,
      " - 6 - 8": 2678,
      " - 6 * 3": 2679,
      " - 6 * 8": 2680,
      " - 6\",\"answer\":\"4": 2681,
      " - 6) + (": 2682,
      " - 6) * 3": 2683,
      " - 6) + 2": 2684,
      " - 6) + 9": 2685,
      " - 6) - 1": 2686,
      " - 6)\",\"answer\":\"6": 2687,
      " - 2 - 2": 2688,
      " - 2 - 4": 2689,
      " - 2) + 2": 2690,
      " - 2) - 9": 2691,
      " - 2) + 5": 2692,
      " - 2)\",\"answer\":\"8": 2693,
      " - 2) - 10": 2694,
      " - 2) + 10": 2695,
      " - 26\",\"answer\":\"4": 2696,
      " - 24\",\"answer\":\"6": 2697,
      " * 6 * 2": 2698,
      " * 6 * 3": 2699,
      " * 6\",\"answer\":\"-4": 2700,
      " * 6) * 3": 2701,
      " * 6) - 4": 2702,
      " * 6) + 6": 2703,
      " * 6) * 4": 2704,
      " * 6) * 6": 2705,
      " * 6) - 7": 2706,
      " * 6) + 7": 2707,
      " * 6) + 1": 2708,
      " * 6 - (3": 2709,
      " * 67\",\"answer\":\"4": 2710,
      " * 68\",\"answer\":\"2": 2711,
      " - 38": 2712,
      " - 3 + 3": 2713,
      " - 3)\",\"answer\":\"1": 2714,
      " - 3 + 2": 2715,
      " - 3) + 5": 2716,
      " - 3)\",\"answer\":\"-3": 2717,
      " - 37\",\"answer\":\"4": 2718,
      " - 35\",\"answer\":\"5": 2719,
      " - 30\",\"answer\":\"5": 2720,
      " + 25": 2721,
      " + 2 * 3": 2722,
      " + 2 - 4": 2723,
      " + 2 - 10": 2724,
      " + 2) - 5": 2725,
      " + 2) - 4": 2726,
      " + 2) - 6": 2727,
      " + 2) + 9": 2728,
      " + 2) * 5": 2729,
      " + 27\",\"answer\":\"5": 2730,
      " + 25\",\"answer\":\"4": 2731,
      " + 24\",\"answer\":\"6": 2732,
      " + 2\",\"answer\":\"28\"}\n": 2733,
      " + 1 * 5": 2734,
      " + 1)\",\"answer\":\"3": 2735,
      " + 1\",\"answer\":\"12": 2736,
      " + 1) * 3": 2737,
      " + 1) - 8": 2738,
      " + 15\",\"answer\":\"6": 2739,
      " - 4 * 3": 2740,
      " - 4) * (": 2741,
      " - 4) * 7": 2742,
      " - 4) - 3": 2743,
      " - 4) * 9": 2744,
      " - 49\",\"answer\":\"4": 2745,
      " - 42\",\"answer\":\"3": 2746,
      " - 7 * 2": 2747,
      " - 7 * 3": 2748,
      " - 7 - 6": 2749,
      " - 7 - 10": 2750,
      " - 7) - 5": 2751,
      " - 7)\",\"answer\":\"4": 2752,
      " - 7) + 6": 2753,
      " - 7) * 4": 2754,
      " - 7) - 6": 2755,
      " - 7) - 8": 2756,
      " - 7) * 6": 2757,
      " - 7) - 9": 2758,
      " - 7) + 7": 2759,
      " - 7) * 10": 2760,
      " - 7 - (3": 2761,
      " - 70\",\"answer\":\"2": 2762,
      " - 79\",\"answer\":\"2": 2763,
      " * 1 - 8": 2764,
      " * 1 * 4": 2765,
      " * 1) - (": 2766,
      " * 1) + 4": 2767,
      " * 1)\",\"answer\":\"5": 2768,
      " * 1) + 2": 2769,
      " * 1) * 6": 2770,
      " * 1) + 5": 2771,
      " * 1) + 7": 2772,
      " * 1) + 10": 2773,
      " * 14\",\"answer\":\"3": 2774,
      " * 15\",\"answer\":\"6": 2775,
      ")\",\"answer\":\"-8\"}\n": 2776,
      ")\",\"answer\":\"-9\"}\n": 2777,
      ")\",\"answer\":\"-70\"}\n": 2778,
      ")\",\"answer\":\"-81\"}\n": 2779,
      ")\",\"answer\":\"-47\"}\n": 2780,
      ")\",\"answer\":\"-42\"}\n": 2781,
      ")\",\"answer\":\"-74\"}\n": 2782,
      ")\",\"answer\":\"-66\"}\n": 2783,
      ")\",\"answer\":\"-41\"}\n": 2784,
      ")\",\"answer\":\"-93\"}\n": 2785,
      " * 56": 2786,
      " * 58": 2787,
      " * 5 - 8": 2788,
      " * 5 + 7": 2789,
      " * 5 - 1": 2790,
      " * 5 - 2": 2791,
      " * 5 * 6": 2792,
      " * 5)\",\"answer\":\"2": 2793,
      " * 5) + (": 2794,
      " * 5\",\"answer\":\"-1": 2795,
      " * 5) * 3": 2796,
      " * 5) - 8": 2797,
      " * 5) + 9": 2798,
      " * 5) * 2": 2799,
      " * 5) * 9": 2800,
      " * 5) + 10": 2801,
      " * 51\",\"answer\":\"3": 2802,
      " * 56\",\"answer\":\"3": 2803,
      " * 50\",\"answer\":\"3": 2804,
      " * 53\",\"answer\":\"4": 2805,
      "\",\"answer\":\"48\"}\n": 2806,
      "\",\"answer\":\"440\"}\n": 2807,
      "\",\"answer\":\"425\"}\n": 2808,
      "\",\"answer\":\"419\"}\n": 2809,
      "\",\"answer\":\"417\"}\n": 2810,
      "\",\"answer\":\"438\"}\n": 2811,
      "\",\"answer\":\"53": 2812,
      "\",\"answer\":\"55": 2813,
      "\",\"answer\":\"56": 2814,
      "\",\"answer\":\"581\"}\n": 2815,
      "\",\"answer\":\"557\"}\n": 2816,
      " * 10 + 4": 2817,
      " * 10 + 9": 2818,
      " * 10 - 1": 2819,
      " * 10 * 6": 2820,
      " * 10)\",\"answer\":\"-": 2821,
      " * 10\",\"answer\":\"8": 2822,
      " * 10)\",\"answer\":\"2": 2823,
      " * 10) + 4": 2824,
      " * 10)\",\"answer\":\"4": 2825,
      " * 10) - 8": 2826,
      " * 10) + 9": 2827,
      " * 10) - 7": 2828,
      " * 10) + 5": 2829,
      " * 10) + 8": 2830,
      " - 10 * 2": 2831,
      " - 10 + 7": 2832,
      " - 10 * 8": 2833,
      " - 10 * 6": 2834,
      " - 10) - 4": 2835,
      " - 10) - 6": 2836,
      " - 10) * 7": 2837,
      " - 10) + 7": 2838,
      " - 10) + 8": 2839,
      " - 10)\",\"answer\":\"9": 2840,
      " - 10 + (3": 2841,
      " + 10 + 4": 2842,
      " + 10 + 6": 2843,
      " + 10 + 2": 2844,
      " + 10)\",\"answer\":\"5": 2845,
      " + 10) - 4": 2846,
      " + 10) - 8": 2847,
      " + 10) - 1": 2848,
      " + 10) + 5": 2849,
      " + 10) - 3": 2850,
      "\",\"answer\":\"63": 2851,
      "\",\"answer\":\"69": 2852,
      "\",\"answer\":\"655\"}\n": 2853,
      "\",\"answer\":\"70": 2854,
      "\",\"answer\":\"701\"}\n": 2855,
      "\",\"answer\":\"80": 2856,
      "\",\"answer\":\"82": 2857,
      "\",\"answer\":\"813\"}\n": 2858,
      "{\"prompt\":\"(5 - 2": 2859,
      "{\"prompt\":\"(5 * 1": 2860,
      "{\"prompt\":\"(53 + 1": 2861,
      "{\"prompt\":\"(52 - 10": 2862,
      "{\"prompt\":\"(56 * 6": 2863,
      "{\"prompt\":\"(58 + 10": 2864,
      "{\"prompt\":\"(51 * 1": 2865,
      "{\"prompt\":\"(54 * 10": 2866,
      "{\"prompt\":\"(51 + 8": 2867,
      "{\"prompt\":\"(54 - 2": 2868,
      "{\"prompt\":\"(52 * 1": 2869,
      "{\"prompt\":\"(58 + 4": 2870,
      "{\"prompt\":\"(52 + 9": 2871,
      "{\"prompt\":\"(3 * 2": 2872,
      "{\"prompt\":\"(31 * 7": 2873,
      "{\"prompt\":\"(32 - 10": 2874,
      "{\"prompt\":\"(32 - 6": 2875,
      "{\"prompt\":\"(33 + 6": 2876,
      "{\"prompt\":\"(33 * 7": 2877,
      "{\"prompt\":\"(33 * 4": 2878,
      "\",\"answer\":\"96": 2879,
      "\",\"answer\":\"940\"}\n": 2880,
      ")\",\"answer\":\"24": 2881,
      ")\",\"answer\":\"29": 2882,
      ")\",\"answer\":\"224\"}\n": 2883,
      ")\",\"answer\":\"292\"}\n": 2884,
      ")\",\"answer\":\"274\"}\n": 2885,
      "{\"prompt\":\"(2 + 6": 2886,
      "{\"prompt\":\"(28 + 7": 2887,
      "{\"prompt\":\"(21 * 2": 2888,
      "{\"prompt\":\"(23 - 7": 2889,
      "{\"prompt\":\"(24 * 9": 2890,
      "{\"prompt\":\"(21 * 3": 2891,
      ") - (40": 2892,
      ") - (11": 2893,
      ") - (14": 2894,
      ") - (12": 2895,
      ") + (47": 2896,
      ") + (71": 2897,
      ") + (16": 2898,
      "{\"prompt\":\"(7 - 8": 2899,
      "{\"prompt\":\"(73 - 1": 2900,
      "{\"prompt\":\"(71 * 4": 2901,
      "{\"prompt\":\"(72 * 7": 2902,
      "{\"prompt\":\"(71 - 2": 2903,
      "{\"prompt\":\"(71 + 6": 2904,
      "{\"prompt\":\"(79 * 10": 2905,
      "{\"prompt\":\"(75 * 4": 2906,
      "{\"prompt\":\"(71 + 3": 2907,
      "\",\"answer\":\"-150\"}\n": 2908,
      "\",\"answer\":\"-113\"}\n": 2909,
      "\",\"answer\":\"-134\"}\n": 2910,
      "\",\"answer\":\"-142\"}\n": 2911,
      "{\"prompt\":\"(19 + 10": 2912,
      "{\"prompt\":\"(11 * 9": 2913,
      "{\"prompt\":\"(13 * 4": 2914,
      "{\"prompt\":\"(15 - 10": 2915,
      "{\"prompt\":\"(15 - 8": 2916,
      "{\"prompt\":\"(19 - 8": 2917,
      "{\"prompt\":\"(19 + 6": 2918,
      "{\"prompt\":\"(14 - 8": 2919,
      "{\"prompt\":\"(82 + 7": 2920,
      "{\"prompt\":\"(81 - 10": 2921,
      "{\"prompt\":\"(82 * 7": 2922,
      "{\"prompt\":\"(83 * 6": 2923,
      "{\"prompt\":\"(84 * 4": 2924,
      "{\"prompt\":\"(89 + 8": 2925,
      "{\"prompt\":\"(81 - 8": 2926,
      "{\"prompt\":\"(88 * 2": 2927,
      "{\"prompt\":\"(85 * 8": 2928,
      "{\"prompt\":\"(85 * 2": 2929,
      "{\"prompt\":\"(9 + 2": 2930,
      "{\"prompt\":\"(95 - 9": 2931,
      "{\"prompt\":\"(92 * 9": 2932,
      "{\"prompt\":\"(93 * 6": 2933,
      "{\"prompt\":\"(95 + 5": 2934,
      "{\"prompt\":\"(91 + 5": 2935,
      "{\"prompt\":\"(94 - 7": 2936,
      "{\"prompt\":\"(6 * 1": 2937,
      "{\"prompt\":\"(62 - 10": 2938,
      "{\"prompt\":\"(61 * 2": 2939,
      "{\"prompt\":\"(65 * 10": 2940,
      "{\"prompt\":\"(66 + 5": 2941,
      "{\"prompt\":\"(68 + 1": 2942,
      "{\"prompt\":\"(62 * 3": 2943,
      "{\"prompt\":\"(66 + 10": 2944,
      "{\"prompt\":\"(47 - 1": 2945,
      "{\"prompt\":\"(42 - 1": 2946,
      ") * (100": 2947,
      ") * (14": 2948,
      ") * (75": 2949,
      ") * (60": 2950,
      ") * (20": 2951,
      ")\",\"answer\":\"32\"}\n": 2952,
      ")\",\"answer\":\"36\"}\n": 2953,
      ")\",\"answer\":\"33\"}\n": 2954,
      ")\",\"answer\":\"39\"}\n": 2955,
      ")\",\"answer\":\"352\"}\n": 2956,
      ")\",\"answer\":\"386\"}\n": 2957,
      ")\",\"answer\":\"373\"}\n": 2958,
      "\",\"answer\":\"1200\"}\n": 2959,
      "\",\"answer\":\"1248\"}\n": 2960,
      "\",\"answer\":\"1400\"}\n": 2961,
      "\",\"answer\":\"1344\"}\n": 2962,
      "\",\"answer\":\"1377\"}\n": 2963,
      "\",\"answer\":\"-330\"}\n": 2964,
      "\",\"answer\":\"-317\"}\n": 2965,
      "\",\"answer\":\"-46": 2966,
      "\",\"answer\":\"-405\"}\n": 2967,
      ") - 54": 2968,
      ") - 56": 2969,
      ") - 5)\",\"answer\":\"1": 2970,
      ") - 5) - 1": 2971,
      ") - 5)\",\"answer\":\"-1": 2972,
      " + ((76": 2973,
      " + ((77": 2974,
      " + ((17": 2975,
      " + ((15": 2976,
      ") + 4\",\"answer\":\"2": 2977,
      ") + 4)\",\"answer\":\"3": 2978,
      ") + 48\",\"answer\":\"6": 2979,
      " - ((40": 2980,
      " - ((13": 2981,
      ") * 30\",\"answer\":\"2": 2982,
      ") * 39\",\"answer\":\"8": 2983,
      ")\",\"answer\":\"45\"}\n": 2984,
      ")\",\"answer\":\"49\"}\n": 2985,
      ")\",\"answer\":\"411\"}\n": 2986,
      ")\",\"answer\":\"473\"}\n": 2987,
      ")\",\"answer\":\"54\"}\n": 2988,
      ")\",\"answer\":\"510\"}\n": 2989,
      ")\",\"answer\":\"595\"}\n": 2990,
      ")\",\"answer\":\"529\"}\n": 2991,
      ")\",\"answer\":\"509\"}\n": 2992,
      ") - 47": 2993,
      ") + 69": 2994,
      ") + 6) * 3": 2995,
      ") + 6) + 5": 2996,
      ") * 4)\",\"answer\":\"-2": 2997,
      "\",\"answer\":\"1560\"}\n": 2998,
      ") - 62": 2999,
      ") - 66": 3000,
      ") + 28": 3001,
      ") - 83": 3002,
      ") - 8)\",\"answer\":\"2": 3003,
      ") - 8) + 8": 3004,
      ") * 7\",\"answer\":\"-3": 3005,
      ") * 7)\",\"answer\":\"4": 3006,
      ") * 7)\",\"answer\":\"-1": 3007,
      ") * 77\",\"answer\":\"3": 3008,
      ") * 73\",\"answer\":\"5": 3009,
      ") + 93": 3010,
      ") + 96": 3011,
      ") + 98": 3012,
      ") * 6\",\"answer\":\"4": 3013,
      ") * 6\",\"answer\":\"5": 3014,
      ") * 61\",\"answer\":\"3": 3015,
      ") * 60\",\"answer\":\"2": 3016,
      ") - 14": 3017,
      ") - 18": 3018,
      ") * 5)\",\"answer\":\"1": 3019,
      ") - 77": 3020,
      ") + 37": 3021,
      ") + 3\",\"answer\":\"7": 3022,
      ") + 71": 3023,
      ") - 30": 3024,
      ") - 32": 3025,
      ") - 38": 3026,
      ") * 20": 3027,
      ") * 24": 3028,
      ") * 2)\",\"answer\":\"2": 3029,
      " * ((73": 3030,
      " * ((60": 3031,
      ") * 8 + 3": 3032,
      ") * 1)\",\"answer\":\"-": 3033,
      ") - 21": 3034,
      "\",\"answer\":\"178\"}\n": 3035,
      ") + 16": 3036,
      ") + 1\",\"answer\":\"-1": 3037,
      ") + 1) * 9": 3038,
      ")\",\"answer\":\"77\"}\n": 3039,
      ")\",\"answer\":\"725\"}\n": 3040,
      ")\",\"answer\":\"-12\"}\n": 3041,
      ")\",\"answer\":\"-153\"}\n": 3042,
      ")\",\"answer\":\"-115\"}\n": 3043,
      ")\",\"answer\":\"88": 3044,
      ")\",\"answer\":\"88\"}\n": 3045,
      ")\",\"answer\":\"83\"}\n": 3046,
      "\",\"answer\":\"181\"}\n": 3047,
      "\",\"answer\":\"1920\"}\n": 3048,
      "\",\"answer\":\"-65\"}\n": 3049,
      ") - 10) - (": 3050,
      ") - 10) + 5": 3051,
      ")\",\"answer\":\"-26\"}\n": 3052,
      ")\",\"answer\":\"-244\"}\n": 3053,
      ")\",\"answer\":\"-295\"}\n": 3054,
      "\",\"answer\":\"162\"}\n": 3055,
      "{\"prompt\":\"62 * 4": 3056,
      "{\"prompt\":\"62 * 8": 3057,
      "{\"prompt\":\"62 - 6": 3058,
      ")\",\"answer\":\"98\"}\n": 3059,
      ")\",\"answer\":\"97\"}\n": 3060,
      "722\"}\n": 3061,
      "725\"}\n": 3062,
      "{\"prompt\":\"51 * 6": 3063,
      "{\"prompt\":\"51 * 1": 3064,
      "{\"prompt\":\"95 + 5": 3065,
      "{\"prompt\":\"95 - 4": 3066,
      "{\"prompt\":\"((43 + 1": 3067,
      "{\"prompt\":\"38 - 3": 3068,
      "{\"prompt\":\"93 + 7": 3069,
      "{\"prompt\":\"93 + (9": 3070,
      "{\"prompt\":\"44 * 7": 3071,
      "{\"prompt\":\"44 - 8": 3072,
      "{\"prompt\":\"44 + 6": 3073,
      "{\"prompt\":\"71 + 6": 3074,
      "{\"prompt\":\"71 - 2": 3075,
      "{\"prompt\":\"92 - 6": 3076,
      "{\"prompt\":\"92 - 7": 3077,
      "{\"prompt\":\"17 * 8": 3078,
      "{\"prompt\":\"17 + (9": 3079,
      "{\"prompt\":\"34 + 3": 3080,
      "{\"prompt\":\"34 - 5": 3081,
      "\",\"answer\":\"-75\"}\n": 3082,
      "{\"prompt\":\"89 * 4": 3083,
      "{\"prompt\":\"89 - 5": 3084,
      "{\"prompt\":\"89 - 6": 3085,
      "{\"prompt\":\"89 - 2": 3086,
      "{\"prompt\":\"89 * 6": 3087,
      "{\"prompt\":\"21 * 6": 3088,
      "{\"prompt\":\"83 * 4": 3089,
      "{\"prompt\":\"40 * 4": 3090,
      "{\"prompt\":\"40 + 1": 3091,
      ")\",\"answer\":\"-32\"}\n": 3092,
      "{\"prompt\":\"36 * 9": 3093,
      "{\"prompt\":\"36 - 6": 3094,
      "{\"prompt\":\"36 - (5": 3095,
      "403\"}\n": 3096,
      "407\"}\n": 3097,
      ") * 10\",\"answer\":\"-4": 3098,
      ") * 10)\",\"answer\":\"4": 3099,
      "{\"prompt\":\"60 * 2": 3100,
      "{\"prompt\":\"60 - 1": 3101,
      "{\"prompt\":\"60 * 3": 3102,
      "{\"prompt\":\"60 - 2": 3103,
      "{\"prompt\":\"47 + 9": 3104,
      "{\"prompt\":\"86 - 1": 3105,
      "{\"prompt\":\"69 * 8": 3106,
      "{\"prompt\":\"69 + 1": 3107,
      "{\"prompt\":\"77 * 7": 3108,
      "{\"prompt\":\"77 + 7": 3109,
      "{\"prompt\":\"77 * 3": 3110,
      "{\"prompt\":\"77 * 6": 3111,
      "{\"prompt\":\"54 - 2": 3112,
      "{\"prompt\":\"54 - 4": 3113,
      "{\"prompt\":\"54 * 1": 3114,
      "{\"prompt\":\"100 * 3": 3115,
      "{\"prompt\":\"67 * 9": 3116,
      "{\"prompt\":\"67 - 3": 3117,
      "{\"prompt\":\"45 * 7": 3118,
      "{\"prompt\":\"80 * 4": 3119,
      "{\"prompt\":\"80 * 8": 3120,
      "{\"prompt\":\"65 + 5": 3121,
      "{\"prompt\":\"23 * 8": 3122,
      "{\"prompt\":\"23 + 1": 3123,
      "{\"prompt\":\"56 * 6": 3124,
      "{\"prompt\":\"56 - 3": 3125,
      "{\"prompt\":\"56 - (5": 3126,
      "{\"prompt\":\"56 + (3": 3127,
      "{\"prompt\":\"11 + 4": 3128,
      "{\"prompt\":\"11 + 8": 3129,
      "{\"prompt\":\"11 - 3": 3130,
      "{\"prompt\":\"28 * 5": 3131,
      "{\"prompt\":\"28 - (5": 3132,
      "{\"prompt\":\"29 + 9": 3133,
      "{\"prompt\":\"72 * 9": 3134,
      "{\"prompt\":\"76 - (9": 3135,
      "{\"prompt\":\"25 * 2": 3136,
      "{\"prompt\":\"25 - 6": 3137,
      "{\"prompt\":\"25 + (4": 3138,
      "{\"prompt\":\"55 * 3": 3139,
      "{\"prompt\":\"55 * 8": 3140,
      "{\"prompt\":\"55 + 1": 3141,
      "{\"prompt\":\"55 + (6": 3142,
      "192\"}\n": 3143,
      "{\"prompt\":\"68 + 3": 3144,
      "{\"prompt\":\"20 * 9": 3145,
      "{\"prompt\":\"20 * 3": 3146,
      "{\"prompt\":\"20 - 3": 3147,
      "{\"prompt\":\"20 - 4": 3148,
      "{\"prompt\":\"42 * 9": 3149,
      "{\"prompt\":\"42 * 4": 3150,
      "{\"prompt\":\"42 - 57": 3151,
      "{\"prompt\":\"75 * 7": 3152,
      "{\"prompt\":\"96 - 7": 3153,
      "{\"prompt\":\"53 - 1": 3154,
      "{\"prompt\":\"58 + 7": 3155,
      "{\"prompt\":\"58 + 4": 3156,
      "{\"prompt\":\"58 - 6": 3157,
      "{\"prompt\":\"13 * 2": 3158,
      "112\"}\n": 3159,
      "116\"}\n": 3160,
      "473\"}\n": 3161,
      "{\"prompt\":\"10 + 5": 3162,
      "{\"prompt\":\"10 * 2": 3163,
      "{\"prompt\":\"10 + 1": 3164,
      "{\"prompt\":\"64 + 5": 3165,
      "{\"prompt\":\"64 - 4": 3166,
      "{\"prompt\":\"64 * 1": 3167,
      "{\"prompt\":\"48 * 7": 3168,
      "{\"prompt\":\"48 + 9": 3169,
      "{\"prompt\":\"48 * 9": 3170,
      "{\"prompt\":\"48 + 1": 3171,
      "{\"prompt\":\"35 * 6": 3172,
      "{\"prompt\":\"35 + (2": 3173,
      "{\"prompt\":\"39 - 5": 3174,
      "{\"prompt\":\"39 - 3": 3175,
      "{\"prompt\":\"84 * 4": 3176,
      "{\"prompt\":\"66 - 6": 3177,
      "{\"prompt\":\"14 * 9": 3178,
      "{\"prompt\":\"16 + 3": 3179,
      "{\"prompt\":\"16 + 2": 3180,
      "{\"prompt\":\"16 * 1": 3181,
      "{\"prompt\":\"27 + 4": 3182,
      "{\"prompt\":\"27 - 4": 3183,
      "{\"prompt\":\"73 * (2": 3184,
      "{\"prompt\":\"74 - 3": 3185,
      "{\"prompt\":\"33 * 7": 3186,
      " + (90 - 4": 3187,
      " + (90 - 2": 3188,
      "{\"prompt\":\"43 + 9": 3189,
      "{\"prompt\":\"43 * 6": 3190,
      "{\"prompt\":\"43 + 1": 3191,
      "{\"prompt\":\"46 * 5": 3192,
      "{\"prompt\":\"49 + 5": 3193,
      "{\"prompt\":\"49 * 5": 3194,
      "{\"prompt\":\"99 + 6": 3195,
      "{\"prompt\":\"99 - 3": 3196,
      ") - ((72": 3197,
      ") - ((76": 3198,
      "774\"}\n": 3199,
      " - (84 + 7": 3200,
      "{\"prompt\":\"78 * 2": 3201,
      "{\"prompt\":\"78 - 3": 3202,
      "{\"prompt\":\"30 - (3": 3203,
      "{\"prompt\":\"37 * 3": 3204,
      "{\"prompt\":\"37 * 5": 3205,
      "{\"prompt\":\"94 + 8": 3206,
      "{\"prompt\":\"94 * 5": 3207,
      "\",\"answer\":\"258\"}\n": 3208,
      "\",\"answer\":\"2520\"}\n": 3209,
      "\",\"answer\":\"2590\"}\n": 3210,
      "{\"prompt\":\"88 - 5": 3211,
      "{\"prompt\":\"79 - 9": 3212,
      "{\"prompt\":\"90 - 3": 3213,
      "{\"prompt\":\"97 + 6": 3214,
      "{\"prompt\":\"97 * 3": 3215,
      "{\"prompt\":\"97 - 3": 3216,
      "{\"prompt\":\"97 + 2": 3217,
      "{\"prompt\":\"97 * 5": 3218,
      "792\"}\n": 3219,
      "{\"prompt\":\"19 * 2": 3220,
      "{\"prompt\":\"19 * 4": 3221,
      "{\"prompt\":\"19 + 1": 3222,
      "170\"}\n": 3223,
      "172\"}\n": 3224,
      "178\"}\n": 3225,
      " + (87 + 10": 3226,
      "{\"prompt\":\"18 * 4": 3227,
      "{\"prompt\":\"18 - 2": 3228,
      "{\"prompt\":\"98 + 5": 3229,
      "{\"prompt\":\"31 + 6": 3230,
      "{\"prompt\":\"31 + 1": 3231,
      "{\"prompt\":\"91 - 10": 3232,
      "{\"prompt\":\"91 - (6": 3233,
      "{\"prompt\":\"50 - 1": 3234,
      "{\"prompt\":\"50 * 8": 3235,
      "{\"prompt\":\"15 + 4": 3236,
      "{\"prompt\":\"15 + 2": 3237,
      "{\"prompt\":\"15 + 1": 3238,
      "464\"}\n": 3239,
      "465\"}\n": 3240,
      "{\"prompt\":\"61 - 9": 3241,
      "{\"prompt\":\"61 * 6": 3242,
      "{\"prompt\":\"57 * 2": 3243,
      "{\"prompt\":\"57 * 6": 3244,
      "{\"prompt\":\"((88 + 7": 3245,
      "\",\"answer\":\"203\"}\n": 3246,
      "{\"prompt\":\"82 * 7": 3247,
      "{\"prompt\":\"82 + 6": 3248,
      "{\"prompt\":\"82 - 1": 3249,
      "{\"prompt\":\"52 + 8": 3250,
      "{\"prompt\":\"52 - 2": 3251,
      "\",\"answer\":\"262\"}\n": 3252,
      "\",\"answer\":\"268\"}\n": 3253,
      "\",\"answer\":\"266\"}\n": 3254,
      "\",\"answer\":\"263\"}\n": 3255,
      "\",\"answer\":\"261\"}\n": 3256,
      "\",\"answer\":\"267\"}\n": 3257,
      "\",\"answer\":\"2610\"}\n": 3258,
      "146\"}\n": 3259,
      "141\"}\n": 3260,
      "785\"}\n": 3261,
      "135\"}\n": 3262,
      "712\"}\n": 3263,
      "735\"}\n": 3264,
      " + (44 - 2": 3265,
      "{\"prompt\":\"32 * 3": 3266,
      ") + ((2": 3267,
      ") + ((4": 3268,
      ") + ((6": 3269,
      "185\"}\n": 3270,
      "1\",\"answer\":\"38\"}\n": 3271,
      "1\",\"answer\":\"31\"}\n": 3272,
      "4\",\"answer\":\"33\"}\n": 3273,
      "4\",\"answer\":\"31\"}\n": 3274,
      "753\"}\n": 3275,
      ")\",\"answer\":\"167\"}\n": 3276,
      "2\",\"answer\":\"20\"}\n": 3277,
      "2\",\"answer\":\"22\"}\n": 3278,
      "2\",\"answer\":\"28\"}\n": 3279,
      "5\",\"answer\":\"24\"}\n": 3280,
      "5\",\"answer\":\"28\"}\n": 3281,
      "7\",\"answer\":\"45\"}\n": 3282,
      "7\",\"answer\":\"59\"}\n": 3283,
      "8\",\"answer\":\"43\"}\n": 3284,
      "1 * 7) + 3": 3285,
      "2\",\"answer\":\"54\"}\n": 3286,
      "2\",\"answer\":\"53\"}\n": 3287,
      "2\",\"answer\":\"5888\"}\n": 3288,
      "5\",\"answer\":\"55\"}\n": 3289,
      "3 - 1) - 4": 3290,
      "3 - 1) + 6": 3291,
      "4\",\"answer\":\"22\"}\n": 3292,
      "4\",\"answer\":\"49\"}\n": 3293,
      "5\",\"answer\":\"63\"}\n": 3294,
      "8\",\"answer\":\"27\"}\n": 3295,
      "{\"prompt\":\"(50 + 4": 3296,
      "{\"prompt\":\"(59 - 7": 3297,
      "{\"prompt\":\"(30 - 4": 3298,
      "{\"prompt\":\"(37 * 3": 3299,
      "{\"prompt\":\"(37 - 3": 3300,
      "{\"prompt\":\"(39 * 9": 3301,
      "{\"prompt\":\"(26 * 8": 3302,
      "1\",\"answer\":\"44\"}\n": 3303,
      "1\",\"answer\":\"48\"}\n": 3304,
      "1\",\"answer\":\"45\"}\n": 3305,
      "8\",\"answer\":\"63\"}\n": 3306,
      "8\",\"answer\":\"61\"}\n": 3307,
      "9\",\"answer\":\"44\"}\n": 3308,
      "2 - 6 * 3": 3309,
      "2\",\"answer\":\"42\"}\n": 3310,
      "2\",\"answer\":\"46\"}\n": 3311,
      "2\",\"answer\":\"43\"}\n": 3312,
      "9\",\"answer\":\"25\"}\n": 3313,
      "{\"prompt\":\"(49 + 3": 3314,
      "1 + 7) * 6": 3315,
      "{\"prompt\":\"(96 + 8": 3316,
      "{\"prompt\":\"(96 * 10": 3317,
      "{\"prompt\":\"(48 * 10": 3318,
      "2\",\"answer\":\"64\"}\n": 3319,
      "2\",\"answer\":\"66\"}\n": 3320,
      "3\",\"answer\":\"23": 3321,
      "3 + 7) - 6": 3322,
      "201\"}\n": 3323,
      "2 * 2) * 5": 3324,
      "3\",\"answer\":\"73\"}\n": 3325,
      "3\",\"answer\":\"77\"}\n": 3326,
      "4\",\"answer\":\"57\"}\n": 3327,
      "4\",\"answer\":\"504\"}\n": 3328,
      "{\"prompt\":\"(87 * 8": 3329,
      "3\",\"answer\":\"52\"}\n": 3330,
      "8 + 10) * 5": 3331,
      "9\",\"answer\":\"50\"}\n": 3332,
      "9\",\"answer\":\"58\"}\n": 3333,
      "9\",\"answer\":\"53\"}\n": 3334,
      "4 * 2\",\"answer\":\"2": 3335,
      " * 26\",\"answer\":\"14": 3336,
      "{\"prompt\":\"(80 - 1": 3337,
      "1 - 1) - 1": 3338,
      "8\",\"answer\":\"140\"}\n": 3339,
      "6\",\"answer\":\"52\"}\n": 3340,
      "2 * 4 + 4": 3341,
      "3\",\"answer\":\"80\"}\n": 3342,
      "5 * 7) * 6": 3343,
      "5 + 8) - 6": 3344,
      "9\",\"answer\":\"60\"}\n": 3345,
      " - 84\",\"answer\":\"-7\"}\n": 3346,
      " * 17\",\"answer\":\"8": 3347,
      "7\",\"answer\":\"142\"}\n": 3348,
      "7\",\"answer\":\"149\"}\n": 3349,
      "8 * 6) - 6": 3350,
      "7 * 9)\",\"answer\":\"8": 3351,
      "\",\"answer\":\"-105\"}\n": 3352,
      " - (74 * 7": 3353,
      ")\",\"answer\":\"256": 3354,
      ")\",\"answer\":\"4224\"}\n": 3355,
      ")\",\"answer\":\"1768\"}\n": 3356,
      "{\"prompt\":\"64 * 92\",\"answer\":\"5888\"}\n": 3357,
      ")\",\"answer\":\"-474\"}\n": 3358,
      "0 * 2": 3359,
      "0\",\"answer\":\"6": 3360,
      "040\"}\n": 3361,
      "0\",\"answer\":\"16": 3362,
      "056\"}\n": 3363,
      "088\"}\n": 3364,
      "092\"}\n": 3365,
      "052\"}\n": 3366,
      "003\"}\n": 3367,
      "0\",\"answer\":\"0\"}\n": 3368,
      "0\",\"answer\":\"1260\"}\n": 3369,
      "0\",\"answer\":\"1920\"}\n": 3370,
      "1\",\"answer\":\"7": 3371,
      "1\",\"answer\":\"14": 3372,
      "110\"}\n": 3373,
      "140\"}\n": 3374,
      "1\",\"answer\":\"25": 3375,
      "132\"}\n": 3376,
      "158\"}\n": 3377,
      "1\",\"answer\":\"88\"}\n": 3378,
      "1\",\"answer\":\"1377\"}\n": 3379,
      "2\",\"answer\":\"9": 3380,
      "2\",\"answer\":\"10": 3381,
      "2\",\"answer\":\"15": 3382,
      "220\"}\n": 3383,
      "244\"}\n": 3384,
      "2\",\"answer\":\"-7": 3385,
      "224\"}\n": 3386,
      "292\"}\n": 3387,
      "225\"}\n": 3388,
      "252\"}\n": 3389,
      "216\"}\n": 3390,
      "275\"}\n": 3391,
      "277\"}\n": 3392,
      "267\"}\n": 3393,
      "205\"}\n": 3394,
      "233\"}\n": 3395,
      "2\",\"answer\":\"90\"}\n": 3396,
      "2\",\"answer\":\"132\"}\n": 3397,
      "33": 3398,
      "36": 3399,
      "3\",\"answer\":\"-2": 3400,
      "380\"}\n": 3401,
      "360\"}\n": 3402,
      "350\"}\n": 3403,
      "3\",\"answer\":\"19": 3404,
      "388\"}\n": 3405,
      "304\"}\n": 3406,
      "3\",\"answer\":\"26": 3407,
      "352\"}\n": 3408,
      "313\"}\n": 3409,
      "375\"}\n": 3410,
      "397\"}\n": 3411,
      "387\"}\n": 3412,
      "337\"}\n": 3413,
      "3\",\"answer\":\"0\"}\n": 3414,
      "3\",\"answer\":\"-29\"}\n": 3415,
      "3160\"}\n": 3416,
      "4\",\"answer\":\"8": 3417,
      "4\",\"answer\":\"-1": 3418,
      "460\"}\n": 3419,
      "410\"}\n": 3420,
      "4\",\"answer\":\"19": 3421,
      "488\"}\n": 3422,
      "412\"}\n": 3423,
      "416\"}\n": 3424,
      "490\"}\n": 3425,
      "484\"}\n": 3426,
      "4\",\"answer\":\"-1\"}\n": 3427,
      "580\"}\n": 3428,
      "5\",\"answer\":\"18": 3429,
      "5\",\"answer\":\"-6": 3430,
      "5\",\"answer\":\"16": 3431,
      "546\"}\n": 3432,
      "576\"}\n": 3433,
      "522\"}\n": 3434,
      "591\"}\n": 3435,
      "535\"}\n": 3436,
      "557\"}\n": 3437,
      "502\"}\n": 3438,
      "624\"}\n": 3439,
      "625\"}\n": 3440,
      "608\"}\n": 3441,
      "642\"}\n": 3442,
      "621\"}\n": 3443,
      "699\"}\n": 3444,
      "7\",\"answer\":\"7": 3445,
      "7\",\"answer\":\"-1": 3446,
      "7\",\"answer\":\"10": 3447,
      "736\"}\n": 3448,
      "788\"}\n": 3449,
      "730\"}\n": 3450,
      "752\"}\n": 3451,
      "758\"}\n": 3452,
      "86": 3453,
      "8\",\"answer\":\"9": 3454,
      "820\"}\n": 3455,
      "840\"}\n": 3456,
      "828\"}\n": 3457,
      "848\"}\n": 3458,
      "8\",\"answer\":\"25": 3459,
      "830\"}\n": 3460,
      "896\"}\n": 3461,
      "894\"}\n": 3462,
      "814\"}\n": 3463,
      "822\"}\n": 3464,
      "884\"}\n": 3465,
      "873\"}\n": 3466,
      "851\"}\n": 3467,
      "9\",\"answer\":\"9": 3468,
      "9\",\"answer\":\"-2": 3469,
      "9\",\"answer\":\"13": 3470,
      "9\",\"answer\":\"-3": 3471,
      "9\",\"answer\":\"15": 3472,
      "910\"}\n": 3473,
      "9\",\"answer\":\"19": 3474,
      "9\",\"answer\":\"16": 3475,
      "948\"}\n": 3476,
      "9\",\"answer\":\"25": 3477,
      "926\"}\n": 3478,
      "976\"}\n": 3479,
      "970\"}\n": 3480,
      "986\"}\n": 3481,
      "911\"}\n": 3482,
      "991\"}\n": 3483,
      "929\"}\n": 3484,
      "951\"}\n": 3485,
      "9\",\"answer\":\"-32\"}\n": 3486,
      "9\",\"answer\":\"139\"}\n": 3487,
      "9232\"}\n": 3488,
      "\",\"answer\":\"1100\"}\n": 3489,
      "106\"}\n": 3490,
      "105\"}\n": 3491,
      "\",\"answer\":\"-90\"}\n": 3492,
      "\",\"answer\":\"-93\"}\n": 3493,
      "\",\"answer\":\"-97\"}\n": 3494,
      " - (18": 3495,
      " - (1 + 7": 3496,
      " - (1 - 2": 3497,
      "\",\"answer\":\"200\"}\n": 3498,
      "\",\"answer\":\"244\"}\n": 3499,
      "\",\"answer\":\"288\"}\n": 3500,
      "\",\"answer\":\"246\"}\n": 3501,
      "\",\"answer\":\"295\"}\n": 3502,
      "\",\"answer\":\"247\"}\n": 3503,
      "\",\"answer\":\"211\"}\n": 3504,
      "\",\"answer\":\"217\"}\n": 3505,
      "{\"prompt\":\"8 - 9": 3506,
      "{\"prompt\":\"8 * 4": 3507,
      "{\"prompt\":\"8 * 8": 3508,
      "{\"prompt\":\"8 + 1": 3509,
      "{\"prompt\":\"8 - 7": 3510,
      "{\"prompt\":\"8 * 1": 3511,
      "{\"prompt\":\"8 + 10": 3512,
      "{\"prompt\":\"8 + 99": 3513,
      "{\"prompt\":\"6 * 7": 3514,
      "{\"prompt\":\"6 + 5": 3515,
      "{\"prompt\":\"6 * 9": 3516,
      "{\"prompt\":\"6 - (2": 3517,
      "{\"prompt\":\"6 - (3": 3518,
      "{\"prompt\":\"6 * (6": 3519,
      "{\"prompt\":\"2 + 6": 3520,
      "{\"prompt\":\"2 - 9": 3521,
      "{\"prompt\":\"2 * 4": 3522,
      "{\"prompt\":\"2 * 8": 3523,
      "{\"prompt\":\"2 + 1": 3524,
      "{\"prompt\":\"2 - 7": 3525,
      "{\"prompt\":\"2 + 10": 3526,
      "{\"prompt\":\"2 * (2": 3527,
      "{\"prompt\":\"4 + 3": 3528,
      "{\"prompt\":\"4 * 3": 3529,
      "{\"prompt\":\"4 * 6": 3530,
      "{\"prompt\":\"4 * 5": 3531,
      "{\"prompt\":\"7 * 7": 3532,
      "{\"prompt\":\"7 - 7": 3533,
      "{\"prompt\":\"7 - (9": 3534,
      "{\"prompt\":\"7 * (9": 3535,
      "{\"prompt\":\"7 - 52": 3536,
      "{\"prompt\":\"3 - 5": 3537,
      "{\"prompt\":\"3 - (3": 3538,
      "{\"prompt\":\"3 - 77": 3539,
      "{\"prompt\":\"3 - 47": 3540,
      "{\"prompt\":\"9 * (": 3541,
      "{\"prompt\":\"9 * 7": 3542,
      "{\"prompt\":\"9 - 8": 3543,
      "{\"prompt\":\"9 + 7": 3544,
      "{\"prompt\":\"9 - 1": 3545,
      "{\"prompt\":\"5 - 1": 3546,
      "{\"prompt\":\"5 - 3": 3547,
      "{\"prompt\":\"5 + 2": 3548,
      "{\"prompt\":\"5 - 4": 3549,
      "{\"prompt\":\"5 + 66": 3550,
      "{\"prompt\":\"5 - (47": 3551,
      "{\"prompt\":\"5 - 35": 3552,
      "{\"prompt\":\"5 - 45": 3553,
      " * (13": 3554,
      " * (1 - 10": 3555,
      " * (1 + 2": 3556,
      " * (7 * 10": 3557,
      "{\"prompt\":\"1 + 4": 3558,
      "{\"prompt\":\"1 - 1": 3559,
      "{\"prompt\":\"1 + (4": 3560,
      " * 7 + 7": 3561,
      " * 7\",\"answer\":\"3": 3562,
      " * 7 * 6": 3563,
      " * 7 - 4": 3564,
      " * 7)\",\"answer\":\"-": 3565,
      " * 7 * 5": 3566,
      " * 7\",\"answer\":\"6": 3567,
      " * 7)\",\"answer\":\"2": 3568,
      " * 7\",\"answer\":\"-4": 3569,
      " * 7) - 5": 3570,
      " * 7) * 3": 3571,
      " * 7) * 1": 3572,
      " * 7) + 10": 3573,
      " * 71\",\"answer\":\"3": 3574,
      " * 78\",\"answer\":\"3": 3575,
      " * 74\",\"answer\":\"4": 3576,
      " * 75\",\"answer\":\"6": 3577,
      " * 77\",\"answer\":\"2": 3578,
      " * 71\",\"answer\":\"4": 3579,
      " * 7) + (9": 3580,
      " * 71\",\"answer\":\"6": 3581,
      " * 74 * 7": 3582,
      " * 79 - 8": 3583,
      " * 7) + (2": 3584,
      " * 74\",\"answer\":\"7": 3585,
      " + 5 - 8": 3586,
      " + 5 + 7": 3587,
      " + 5 - 2": 3588,
      " + 5 - 4": 3589,
      " + 5 * 5": 3590,
      " + 5\",\"answer\":\"7": 3591,
      " + 5\",\"answer\":\"10": 3592,
      " + 5) * 4": 3593,
      " + 5) - 6": 3594,
      " + 5) + 2": 3595,
      " + 5) + 9": 3596,
      " + 5) - 1": 3597,
      " + 5) + 7": 3598,
      " + 5) - 3": 3599,
      " + 5) + 8": 3600,
      " + 5 - (6": 3601,
      " + 5 - (8": 3602,
      " + 53 + 9": 3603,
      " + 5\",\"answer\":\"90\"}\n": 3604,
      " + 54 - 10": 3605,
      " + 5)\",\"answer\":\"20": 3606,
      " + 5\",\"answer\":\"46\"}\n": 3607,
      " + 5)\",\"answer\":\"116\"}\n": 3608,
      " + 5)\",\"answer\":\"103\"}\n": 3609,
      " - 8 * 2": 3610,
      " - 8 + 4": 3611,
      " - 8 * 6": 3612,
      " - 8 * 5": 3613,
      " - 8) * 3": 3614,
      " - 8) * 4": 3615,
      " - 8) * 7": 3616,
      " - 8) - 7": 3617,
      " - 8) - 3": 3618,
      " - 8) + 1": 3619,
      " - 8)\",\"answer\":\"-1": 3620,
      " - 8\",\"answer\":\"72\"}\n": 3621,
      " - 8\",\"answer\":\"75\"}\n": 3622,
      " - 80 + 6": 3623,
      " - 8\",\"answer\":\"64\"}\n": 3624,
      " - 8 * 16": 3625,
      " * 2 * 4": 3626,
      " * 2 - 4": 3627,
      " * 2 - 10": 3628,
      " * 2\",\"answer\":\"8": 3629,
      " * 2) + 2": 3630,
      " * 2) + 9": 3631,
      " * 2) - 9": 3632,
      " * 2\",\"answer\":\"17": 3633,
      " * 2) - 10": 3634,
      " * 2) * 10": 3635,
      " * 2 * (5": 3636,
      " * 23\",\"answer\":\"8": 3637,
      " * 2\",\"answer\":\"12\"}\n": 3638,
      " * 2)\",\"answer\":\"12": 3639,
      " * 2\",\"answer\":\"56\"}\n": 3640,
      " * 2\",\"answer\":\"26\"}\n": 3641,
      " + 7 + 8": 3642,
      " + 7 + 6": 3643,
      " + 7\",\"answer\":\"-1": 3644,
      " + 7) - 5": 3645,
      " + 7) * 4": 3646,
      " + 7) - 7": 3647,
      " + 7) - 3": 3648,
      " + 7) * 1": 3649,
      " + 7)\",\"answer\":\"10": 3650,
      " + 7\",\"answer\":\"74\"}\n": 3651,
      " + 77 * 5": 3652,
      " + 74 + 8": 3653,
      " + 4 - 1": 3654,
      " + 4 * 3": 3655,
      " + 4 - 3": 3656,
      " + 4 * 1": 3657,
      " + 4)\",\"answer\":\"-": 3658,
      " + 4) + 4": 3659,
      " + 4) - 6": 3660,
      " + 4) * 7": 3661,
      " + 4) - 1": 3662,
      " + 42\",\"answer\":\"7": 3663,
      " + 4) - (5": 3664,
      " + 4\",\"answer\":\"107\"}\n": 3665,
      " + 4\",\"answer\":\"58\"}\n": 3666,
      " + 4)\",\"answer\":\"-56\"}\n": 3667,
      "\",\"answer\":\"344\"}\n": 3668,
      "\",\"answer\":\"336\"}\n": 3669,
      "\",\"answer\":\"396\"}\n": 3670,
      "\",\"answer\":\"352\"}\n": 3671,
      "\",\"answer\":\"312\"}\n": 3672,
      "\",\"answer\":\"381\"}\n": 3673,
      "\",\"answer\":\"312": 3674,
      "\",\"answer\":\"322\"}\n": 3675,
      "\",\"answer\":\"311\"}\n": 3676,
      "\",\"answer\":\"375\"}\n": 3677,
      "\",\"answer\":\"393\"}\n": 3678,
      "\",\"answer\":\"362\"}\n": 3679,
      "\",\"answer\":\"331\"}\n": 3680,
      "\",\"answer\":\"301\"}\n": 3681,
      "\",\"answer\":\"3280\"}\n": 3682,
      " + 8\",\"answer\":\"3": 3683,
      " + 8 + 3": 3684,
      " + 8 - 5": 3685,
      " + 8 * 8": 3686,
      " + 8 - 2": 3687,
      " + 8 - 4": 3688,
      " + 8\",\"answer\":\"5": 3689,
      " + 8 - 10": 3690,
      " + 8) + 7": 3691,
      " + 8\",\"answer\":\"-5": 3692,
      " + 8) * 1": 3693,
      " + 8) + 10": 3694,
      " + 8\",\"answer\":\"20": 3695,
      " + 8 + 47": 3696,
      " + 84 + 7": 3697,
      " + 83\",\"answer\":\"14": 3698,
      " + 88 + 2": 3699,
      " + 8\",\"answer\":\"40\"}\n": 3700,
      " + 3\",\"answer\":\"3": 3701,
      " + 3 + 3": 3702,
      " + 3)\",\"answer\":\"-": 3703,
      " + 3) + 2": 3704,
      " + 3) + 5": 3705,
      " + 3) + 1": 3706,
      " + 3)\",\"answer\":\"-1": 3707,
      " + 3) + 10": 3708,
      " + 3) * 10": 3709,
      " + 35\",\"answer\":\"4": 3710,
      " + 3 + 47": 3711,
      " + 39 - 2": 3712,
      " + 38\",\"answer\":\"5": 3713,
      " + 3) * (9": 3714,
      " + 3)\",\"answer\":\"30": 3715,
      " + 6 * (": 3716,
      " + 6 - 5": 3717,
      " + 6 * 3": 3718,
      " + 6 - 2": 3719,
      " + 6 + 1": 3720,
      " + 6 - 7": 3721,
      " + 6\",\"answer\":\"6": 3722,
      " + 6) - (": 3723,
      " + 6)\",\"answer\":\"3": 3724,
      " + 6) * 3": 3725,
      " + 6) * 4": 3726,
      " + 6) * 7": 3727,
      " + 6) * 6": 3728,
      " + 6) + 3": 3729,
      " + 6 - (6": 3730,
      " + 6\",\"answer\":\"20": 3731,
      " + 6\",\"answer\":\"72\"}\n": 3732,
      " + 65 - 9": 3733,
      " + 61 - 10": 3734,
      " + 6) + (3": 3735,
      " + 6) - (9": 3736,
      " + 6\",\"answer\":\"102\"}\n": 3737,
      " + 6\",\"answer\":\"8\"}\n": 3738,
      " + 9 - 1": 3739,
      " + 9 - 9": 3740,
      " + 9 - 5": 3741,
      " + 9\",\"answer\":\"5": 3742,
      " + 9 + 10": 3743,
      " + 9\",\"answer\":\"6": 3744,
      " + 9) + (": 3745,
      " + 9) + 2": 3746,
      " + 9) * 6": 3747,
      " + 9) - 9": 3748,
      " + 9) + 7": 3749,
      " + 9) - 3": 3750,
      " + 9) + 8": 3751,
      " + 9) * 1": 3752,
      " + 9) + 1": 3753,
      " + 99 * 8": 3754,
      " + 9) * (2": 3755,
      " + 9\",\"answer\":\"130\"}\n": 3756,
      " + 9\",\"answer\":\"51\"}\n": 3757,
      " + 9 * 48\",\"answer\":\"4": 3758,
      " * 94": 3759,
      " * 9 * 8": 3760,
      " * 9) - 5": 3761,
      " * 9) * 3": 3762,
      " * 9) * 7": 3763,
      " * 9) - 9": 3764,
      " * 9) - 7": 3765,
      " * 9) + 7": 3766,
      " * 9) * 8": 3767,
      " * 9) * 1": 3768,
      " * 9) - 2": 3769,
      " * 9\",\"answer\":\"17": 3770,
      " * 9)\",\"answer\":\"8": 3771,
      " * 9 - (5": 3772,
      " * 9 + (5": 3773,
      " * 97\",\"answer\":\"5": 3774,
      " * 95\",\"answer\":\"6": 3775,
      " * 94\",\"answer\":\"5": 3776,
      " * 93\",\"answer\":\"5": 3777,
      " * 98\",\"answer\":\"5": 3778,
      " * 9)\",\"answer\":\"15": 3779,
      " * 96 - 3": 3780,
      " * 95\",\"answer\":\"7": 3781,
      ")\",\"answer\":\"140\"}\n": 3782,
      ")\",\"answer\":\"124\"}\n": 3783,
      ")\",\"answer\":\"172\"}\n": 3784,
      ")\",\"answer\":\"125\"}\n": 3785,
      ")\",\"answer\":\"170": 3786,
      ")\",\"answer\":\"195\"}\n": 3787,
      ")\",\"answer\":\"142\"}\n": 3788,
      ")\",\"answer\":\"175\"}\n": 3789,
      ")\",\"answer\":\"191\"}\n": 3790,
      ")\",\"answer\":\"153\"}\n": 3791,
      ")\",\"answer\":\"193\"}\n": 3792,
      ")\",\"answer\":\"187\"}\n": 3793,
      ")\",\"answer\":\"185\"}\n": 3794,
      " - 1 - 1": 3795,
      " - 1 - 9": 3796,
      " - 1 * 6": 3797,
      " - 1)\",\"answer\":\"-": 3798,
      " - 1)\",\"answer\":\"2": 3799,
      " - 1) - 6": 3800,
      " - 1) * 7": 3801,
      " - 1) * 6": 3802,
      " - 1) - 9": 3803,
      " - 1) + 3": 3804,
      " - 1) * 8": 3805,
      " - 1) - 10": 3806,
      " - 16\",\"answer\":\"4": 3807,
      " - 13 * 10": 3808,
      " - 19 + 4": 3809,
      " - 1\",\"answer\":\"-37\"}\n": 3810,
      " - 1)\",\"answer\":\"31\"}\n": 3811,
      " - 9 + 5": 3812,
      " - 9 + 4": 3813,
      " - 9 + 8": 3814,
      " - 9 - 5": 3815,
      " - 9 - 7": 3816,
      " - 9 * 1": 3817,
      " - 9 * 10": 3818,
      " - 9\",\"answer\":\"7": 3819,
      " - 9)\",\"answer\":\"2": 3820,
      " - 9)\",\"answer\":\"3": 3821,
      " - 9) - 5": 3822,
      " - 9) + 6": 3823,
      " - 9) * 1": 3824,
      " - 9) + 10": 3825,
      " - 9) * ((": 3826,
      " - 99 - 5": 3827,
      " - 98 - 1": 3828,
      " - 9 - ((8": 3829,
      " - 9)\",\"answer\":\"80\"}\n": 3830,
      " * 45": 3831,
      " * 48": 3832,
      " * 4\",\"answer\":\"2": 3833,
      " * 4 * 4": 3834,
      " * 4 * 3": 3835,
      " * 4 - 4": 3836,
      " * 4\",\"answer\":\"4": 3837,
      " * 4 + 10": 3838,
      " * 4)\",\"answer\":\"2": 3839,
      " * 4) * 3": 3840,
      " * 4) * 7": 3841,
      " * 4) + 9": 3842,
      " * 4) * 6": 3843,
      " * 4) + 3": 3844,
      " * 4) + 7": 3845,
      " * 4) * 8": 3846,
      " * 4) + 10": 3847,
      " * 4) * 10": 3848,
      " * 4 + (2": 3849,
      " * 4 - (8": 3850,
      " * 46\",\"answer\":\"2": 3851,
      " * 46\",\"answer\":\"4": 3852,
      " * 49\",\"answer\":\"3": 3853,
      " * 45\",\"answer\":\"4": 3854,
      " * 49\",\"answer\":\"4": 3855,
      " * 4) - (9": 3856,
      " * 41 - 8": 3857,
      " * 44 * 8": 3858,
      " * 46 - 1": 3859,
      " * 4\",\"answer\":\"192\"}\n": 3860,
      " * 45\",\"answer\":\"9": 3861,
      " * 4\",\"answer\":\"7200\"}\n": 3862,
      "{\"prompt\":\"((14": 3863,
      "{\"prompt\":\"((1 - 10": 3864,
      "{\"prompt\":\"((7 * 10": 3865,
      " - 51": 3866,
      " - 5 * 2": 3867,
      " - 5 + 3": 3868,
      " - 5 * 4": 3869,
      " - 5 - 3": 3870,
      " - 5 + 1": 3871,
      " - 5 - 10": 3872,
      " - 5 + 10": 3873,
      " - 5)\",\"answer\":\"2": 3874,
      " - 5) + 6": 3875,
      " - 5) * 4": 3876,
      " - 5) + 3": 3877,
      " - 5) * 2": 3878,
      " - 5) + 8": 3879,
      " - 5) * 9": 3880,
      " - 5) + 1": 3881,
      " - 5 * (5": 3882,
      " - 56\",\"answer\":\"2": 3883,
      " - 56\",\"answer\":\"3": 3884,
      " - 5\",\"answer\":\"108\"}\n": 3885,
      " - 5\",\"answer\":\"15\"}\n": 3886,
      " - 5) - (8": 3887,
      " - 55 * 4": 3888,
      " - 5\",\"answer\":\"95\"}\n": 3889,
      " - 5\",\"answer\":\"64\"}\n": 3890,
      " - 5)\",\"answer\":\"26\"}\n": 3891,
      " - 5\",\"answer\":\"53\"}\n": 3892,
      " - 53\",\"answer\":\"21\"}\n": 3893,
      " * 3 + 5": 3894,
      " * 3 - 8": 3895,
      " * 3 + 4": 3896,
      " * 3\",\"answer\":\"-2": 3897,
      " * 3) - 5": 3898,
      " * 3) * 3": 3899,
      " * 3)\",\"answer\":\"5": 3900,
      " * 3) + 2": 3901,
      " * 3) * 5": 3902,
      " * 3) + 5": 3903,
      " * 3) * 9": 3904,
      " * 3) - 2": 3905,
      " * 3)\",\"answer\":\"7": 3906,
      " * 3) + 10": 3907,
      " * 3)\",\"answer\":\"11": 3908,
      " * 3) * 10": 3909,
      " * 3 + (2": 3910,
      " * 3 * (2": 3911,
      " * 32\",\"answer\":\"2": 3912,
      " * 34\",\"answer\":\"2": 3913,
      " * 31\",\"answer\":\"2": 3914,
      " * 35\",\"answer\":\"3": 3915,
      " * 33\",\"answer\":\"2": 3916,
      " * 37\",\"answer\":\"14": 3917,
      " * 3)\",\"answer\":\"14": 3918,
      " * 3\",\"answer\":\"22\"}\n": 3919,
      " * 8 * 7": 3920,
      " * 8 + 6": 3921,
      " * 8 * 3": 3922,
      " * 8 * 8": 3923,
      " * 8 * 6": 3924,
      " * 8 - 3": 3925,
      " * 8 * 5": 3926,
      " * 8) + 4": 3927,
      " * 8)\",\"answer\":\"4": 3928,
      " * 8) - 6": 3929,
      " * 8) - 8": 3930,
      " * 8) * 7": 3931,
      " * 8\",\"answer\":\"-5": 3932,
      " * 8) * 1": 3933,
      " * 8)\",\"answer\":\"-2": 3934,
      " * 8\",\"answer\":\"-7": 3935,
      " * 8 * (3": 3936,
      " * 8)\",\"answer\":\"13": 3937,
      " * 86\",\"answer\":\"2": 3938,
      " * 88\",\"answer\":\"3": 3939,
      " * 81 * 7": 3940,
      " * 8\",\"answer\":\"14\"}\n": 3941,
      " * 88 + 6": 3942,
      " * 88\",\"answer\":\"14": 3943,
      " * 8) + (5": 3944,
      " * 8)\",\"answer\":\"23": 3945,
      " * 85 * 3": 3946,
      " * 8 + 64": 3947,
      " * 8\",\"answer\":\"24": 3948,
      " * 80\",\"answer\":\"7": 3949,
      " - 6 * 7": 3950,
      " - 6 + 3": 3951,
      " - 6 - 1": 3952,
      " - 6 * 4": 3953,
      " - 6 - 4": 3954,
      " - 6 * 1": 3955,
      " - 6 * 5": 3956,
      " - 6) + 4": 3957,
      " - 6) - 4": 3958,
      " - 6) + 3": 3959,
      " - 6) + 7": 3960,
      " - 6) + 8": 3961,
      " - 6) * 1": 3962,
      " - 66\",\"answer\":\"2": 3963,
      " - 60\",\"answer\":\"3": 3964,
      " - 67\",\"answer\":\"2": 3965,
      " - 63\",\"answer\":\"3": 3966,
      " - 65 + 1": 3967,
      " - 62 * 1": 3968,
      " - 6) - 51": 3969,
      " - 20": 3970,
      " - 2 + 7": 3971,
      " - 2 * 9": 3972,
      " - 2 - 1": 3973,
      " - 2 * 8": 3974,
      " - 2 - 3": 3975,
      " - 2 + 1": 3976,
      " - 2 * 5": 3977,
      " - 2\",\"answer\":\"4": 3978,
      " - 2) - (": 3979,
      " - 2) * 4": 3980,
      " - 2) * 5": 3981,
      " - 2) * 2": 3982,
      " - 2)\",\"answer\":\"9": 3983,
      " - 21 * 7": 3984,
      " - 20\",\"answer\":\"4": 3985,
      " - 25\",\"answer\":\"5": 3986,
      " - 2)\",\"answer\":\"14": 3987,
      " * 6 * 7": 3988,
      " * 6 + 3": 3989,
      " * 6 - 9": 3990,
      " * 6 - 3": 3991,
      " * 6 + 1": 3992,
      " * 6\",\"answer\":\"5": 3993,
      " * 6 + 10": 3994,
      " * 6\",\"answer\":\"8": 3995,
      " * 6)\",\"answer\":\"2": 3996,
      " * 6)\",\"answer\":\"3": 3997,
      " * 6) - 5": 3998,
      " * 6) - 6": 3999,
      " * 6) - 8": 4000,
      " * 6) + 9": 4001,
      " * 6) - 9": 4002,
      " * 6) + 5": 4003,
      " * 6) + 3": 4004,
      " * 6) + 8": 4005,
      " * 6\",\"answer\":\"-5": 4006,
      " * 6) - 10": 4007,
      " * 62\",\"answer\":\"2": 4008,
      " * 60\",\"answer\":\"4": 4009,
      " * 65\",\"answer\":\"5": 4010,
      " * 64\",\"answer\":\"5": 4011,
      " * 68 + 6": 4012,
      " * 6\",\"answer\":\"-29\"}\n": 4013,
      " - 34": 4014,
      " - 3 + 7": 4015,
      " - 3 * 6": 4016,
      " - 3 - 3": 4017,
      " - 3) + 4": 4018,
      " - 3) * 3": 4019,
      " - 3) - 4": 4020,
      " - 3) * 6": 4021,
      " - 3) - 1": 4022,
      " - 3) * 5": 4023,
      " - 3) + 1": 4024,
      " - 39\",\"answer\":\"3": 4025,
      " - 3) * (3": 4026,
      " - 31\",\"answer\":\"6": 4027,
      " - 3) * (4": 4028,
      " - 3\",\"answer\":\"57\"}\n": 4029,
      " - 3)\",\"answer\":\"20\"}\n": 4030,
      " - 3)\",\"answer\":\"86\"}\n": 4031,
      " - 3) * ((2": 4032,
      " - 36\",\"answer\":\"34\"}\n": 4033,
      " + 2 * 9": 4034,
      " + 2 - 3": 4035,
      " + 2 + 2": 4036,
      " + 2\",\"answer\":\"4": 4037,
      " + 2)\",\"answer\":\"5": 4038,
      " + 2) - 1": 4039,
      " + 2) - 9": 4040,
      " + 2) + 1": 4041,
      " + 2) + 10": 4042,
      " + 2) * 10": 4043,
      " + 28\",\"answer\":\"3": 4044,
      " + 20\",\"answer\":\"4": 4045,
      " + 25\",\"answer\":\"5": 4046,
      " + 29\",\"answer\":\"4": 4047,
      " + 24\",\"answer\":\"5": 4048,
      " + 2) + (8": 4049,
      " + 22\",\"answer\":\"7": 4050,
      " + 2\",\"answer\":\"22\"}\n": 4051,
      " + 2\",\"answer\":\"164\"}\n": 4052,
      " + 2\",\"answer\":\"47\"}\n": 4053,
      " + 2)\",\"answer\":\"2\"}\n": 4054,
      " + 2 + 58": 4055,
      " + 12": 4056,
      " + 1 + 6": 4057,
      " + 1 + 2": 4058,
      " + 1 - 10": 4059,
      " + 1) - (": 4060,
      " + 1) + 6": 4061,
      " + 1) + 2": 4062,
      " + 1) * 7": 4063,
      " + 1) * 6": 4064,
      " + 1) + 5": 4065,
      " + 1) + 1": 4066,
      " + 1) - 10": 4067,
      " + 1) * 10": 4068,
      " + 1 * (2": 4069,
      " + 18\",\"answer\":\"5": 4070,
      " + 15 * 6": 4071,
      " + 1 * 70": 4072,
      " + 1)\",\"answer\":\"-24\"}\n": 4073,
      " - 4 + 4": 4074,
      " - 4 + 6": 4075,
      " - 4 * 4": 4076,
      " - 4 + 1": 4077,
      " - 4 + 10": 4078,
      " - 4\",\"answer\":\"7": 4079,
      " - 4) - 5": 4080,
      " - 4) + 4": 4081,
      " - 4) * 3": 4082,
      " - 4) - 4": 4083,
      " - 4) - 7": 4084,
      " - 4) + 3": 4085,
      " - 4) * 1": 4086,
      " - 4 * (6": 4087,
      " - 47\",\"answer\":\"5": 4088,
      " - 44\",\"answer\":\"4": 4089,
      " - 49\",\"answer\":\"3": 4090,
      " - 4\",\"answer\":\"72\"}\n": 4091,
      " - 41\",\"answer\":\"4": 4092,
      " - 43 + 6": 4093,
      " - 40 + 10": 4094,
      " - 4)\",\"answer\":\"-25\"}\n": 4095,
      " - 7\",\"answer\":\"2": 4096,
      " - 7 * 8": 4097,
      " - 7\",\"answer\":\"5": 4098,
      " - 7)\",\"answer\":\"5": 4099,
      " - 7) * 7": 4100,
      " - 7) * 5": 4101,
      " - 7)\",\"answer\":\"6": 4102,
      " - 7) + 1": 4103,
      " - 7) - (3": 4104,
      " - 7 + ((3": 4105,
      " - 77 - 10": 4106,
      " - 7)\",\"answer\":\"5\"}\n": 4107,
      " * 1 - 1": 4108,
      " * 1 - 2": 4109,
      " * 1 * 6": 4110,
      " * 1 - 3": 4111,
      " * 1 + 2": 4112,
      " * 1 - 7": 4113,
      " * 1 * 5": 4114,
      " * 1) + 9": 4115,
      " * 1) - 9": 4116,
      " * 1 - (4": 4117,
      " * 1) + (9": 4118,
      " * 1\",\"answer\":\"98\"}\n": 4119,
      " * 1\",\"answer\":\"65\"}\n": 4120,
      " * 14 - 5": 4121,
      ")\",\"answer\":\"-40\"}\n": 4122,
      ")\",\"answer\":\"-48\"}\n": 4123,
      ")\",\"answer\":\"-96\"}\n": 4124,
      ")\",\"answer\":\"-52\"}\n": 4125,
      ")\",\"answer\":\"-46\"}\n": 4126,
      ")\",\"answer\":\"-77\"}\n": 4127,
      ")\",\"answer\":\"-59\"}\n": 4128,
      ")\",\"answer\":\"-87\"}\n": 4129,
      ")\",\"answer\":\"-71\"}\n": 4130,
      ")\",\"answer\":\"-49\"}\n": 4131,
      ")\",\"answer\":\"-57\"}\n": 4132,
      ")\",\"answer\":\"-99\"}\n": 4133,
      ")\",\"answer\":\"-740\"}\n": 4134,
      " * 5 + 2": 4135,
      " * 5 - 10": 4136,
      " * 5\",\"answer\":\"-3": 4137,
      " * 5)\",\"answer\":\"5": 4138,
      " * 5) * 6": 4139,
      " * 5) - 9": 4140,
      " * 5) + 3": 4141,
      " * 5) + 7": 4142,
      " * 5) - 3": 4143,
      " * 5) + 1": 4144,
      " * 5)\",\"answer\":\"-3": 4145,
      " * 5) * 10": 4146,
      " * 5 * (5": 4147,
      " * 52\",\"answer\":\"2": 4148,
      " * 57\",\"answer\":\"5": 4149,
      " * 50\",\"answer\":\"4": 4150,
      " * 55\",\"answer\":\"4": 4151,
      " * 58 + 7": 4152,
      " * 5)\",\"answer\":\"14": 4153,
      " * 57\",\"answer\":\"19": 4154,
      "\",\"answer\":\"42": 4155,
      "\",\"answer\":\"410\"}\n": 4156,
      "\",\"answer\":\"424\"}\n": 4157,
      "\",\"answer\":\"430\"}\n": 4158,
      "\",\"answer\":\"446": 4159,
      "\",\"answer\":\"408\"}\n": 4160,
      "\",\"answer\":\"426\"}\n": 4161,
      "\",\"answer\":\"475": 4162,
      "\",\"answer\":\"482\"}\n": 4163,
      "\",\"answer\":\"427\"}\n": 4164,
      "\",\"answer\":\"468\"}\n": 4165,
      "\",\"answer\":\"474\"}\n": 4166,
      "\",\"answer\":\"433\"}\n": 4167,
      "\",\"answer\":\"499\"}\n": 4168,
      "\",\"answer\":\"548\"}\n": 4169,
      "\",\"answer\":\"556\"}\n": 4170,
      "\",\"answer\":\"526\"}\n": 4171,
      "\",\"answer\":\"583\"}\n": 4172,
      "\",\"answer\":\"568\"}\n": 4173,
      "\",\"answer\":\"577\"}\n": 4174,
      "\",\"answer\":\"539\"}\n": 4175,
      "\",\"answer\":\"562\"}\n": 4176,
      "\",\"answer\":\"509\"}\n": 4177,
      " * 10 - 8": 4178,
      " * 10 + 6": 4179,
      " * 10 * 9": 4180,
      " * 10 - 5": 4181,
      " * 10 * 3": 4182,
      " * 10 * 8": 4183,
      " * 10 - 4": 4184,
      " * 10) - 5": 4185,
      " * 10) - 4": 4186,
      " * 10) - 1": 4187,
      " * 10) - 9": 4188,
      " * 10) + 3": 4189,
      " * 10) * 9": 4190,
      " * 10)\",\"answer\":\"8": 4191,
      " * 10) - 10": 4192,
      " * 10 - (9": 4193,
      " * 100\",\"answer\":\"4": 4194,
      " * 10 + 80": 4195,
      " * 10) + (4": 4196,
      " * 10 + 34": 4197,
      " - 10 - 8": 4198,
      " - 10 * 3": 4199,
      " - 10) + 6": 4200,
      " - 10) * 6": 4201,
      " - 10) - 9": 4202,
      " - 10)\",\"answer\":\"6": 4203,
      " - 10) * 9": 4204,
      " - 10) - 2": 4205,
      " - 10) - ((": 4206,
      " - 10 + (5": 4207,
      " - 10 - (4": 4208,
      " - 10) + (8": 4209,
      " - 10) * (2": 4210,
      " - 10 * 3 - 2": 4211,
      " + 10 - 8": 4212,
      " + 10 + 7": 4213,
      " + 10 - 1": 4214,
      " + 10 - 2": 4215,
      " + 10\",\"answer\":\"8": 4216,
      " + 10) - 6": 4217,
      " + 10) + 2": 4218,
      " + 10) * 7": 4219,
      " + 10) + 9": 4220,
      " + 10 * (8": 4221,
      " + 10 + (9": 4222,
      " + 10\",\"answer\":\"105\"}\n": 4223,
      " + 10\",\"answer\":\"91\"}\n": 4224,
      "\",\"answer\":\"648\"}\n": 4225,
      "\",\"answer\":\"619": 4226,
      "\",\"answer\":\"604\"}\n": 4227,
      "\",\"answer\":\"632\"}\n": 4228,
      "\",\"answer\":\"672\"}\n": 4229,
      "\",\"answer\":\"678\"}\n": 4230,
      "\",\"answer\":\"760\"}\n": 4231,
      "\",\"answer\":\"740\"}\n": 4232,
      "\",\"answer\":\"750\"}\n": 4233,
      "\",\"answer\":\"756\"}\n": 4234,
      "\",\"answer\":\"752\"}\n": 4235,
      "\",\"answer\":\"758\"}\n": 4236,
      "\",\"answer\":\"722\"}\n": 4237,
      "\",\"answer\":\"718\"}\n": 4238,
      "\",\"answer\":\"738\"}\n": 4239,
      "\",\"answer\":\"755\"}\n": 4240,
      "\",\"answer\":\"850\"}\n": 4241,
      "\",\"answer\":\"856\"}\n": 4242,
      "\",\"answer\":\"836\"}\n": 4243,
      "\",\"answer\":\"872\"}\n": 4244,
      "\",\"answer\":\"847\"}\n": 4245,
      "\",\"answer\":\"855\"}\n": 4246,
      "\",\"answer\":\"843\"}\n": 4247,
      "\",\"answer\":\"879\"}\n": 4248,
      "\",\"answer\":\"8722\"}\n": 4249,
      "{\"prompt\":\"(5 * 9": 4250,
      "{\"prompt\":\"(5 - 1": 4251,
      "{\"prompt\":\"(5 * 10": 4252,
      "{\"prompt\":\"(52 + 7": 4253,
      "{\"prompt\":\"(53 + 9": 4254,
      "{\"prompt\":\"(53 * 8": 4255,
      "{\"prompt\":\"(53 * 6": 4256,
      "{\"prompt\":\"(51 - 6": 4257,
      "{\"prompt\":\"(54 * 3": 4258,
      "{\"prompt\":\"(58 + 5": 4259,
      "{\"prompt\":\"(51 + 2": 4260,
      "{\"prompt\":\"(53 - 3": 4261,
      "{\"prompt\":\"(54 + 6": 4262,
      "{\"prompt\":\"(54 + 9": 4263,
      "{\"prompt\":\"(51 + 1": 4264,
      "{\"prompt\":\"(54 + 2": 4265,
      "{\"prompt\":\"(58 + 2": 4266,
      "{\"prompt\":\"(51 - 9": 4267,
      "{\"prompt\":\"(58 - 7": 4268,
      "{\"prompt\":\"(3 * 8": 4269,
      "{\"prompt\":\"(33 + 1": 4270,
      "{\"prompt\":\"(31 * 6": 4271,
      "{\"prompt\":\"(31 * 10": 4272,
      "{\"prompt\":\"(33 + 10": 4273,
      "{\"prompt\":\"(34 + 7": 4274,
      "{\"prompt\":\"(31 - 7": 4275,
      "{\"prompt\":\"(34 + 1": 4276,
      "{\"prompt\":\"(31 + 10": 4277,
      "{\"prompt\":\"(34 * 3": 4278,
      "{\"prompt\":\"(36 + 1": 4279,
      "{\"prompt\":\"(31 + 6": 4280,
      "{\"prompt\":\"(31 - 1": 4281,
      "{\"prompt\":\"(34 * 7": 4282,
      "{\"prompt\":\"(32 - 2": 4283,
      "{\"prompt\":\"(31 + 3": 4284,
      "{\"prompt\":\"(32 * 1": 4285,
      "{\"prompt\":\"(33 * 3": 4286,
      "{\"prompt\":\"(31 - 9": 4287,
      "{\"prompt\":\"(32 - 8": 4288,
      "{\"prompt\":\"(32 * 3": 4289,
      "{\"prompt\":\"(36 + 2": 4290,
      "{\"prompt\":\"(36 * 5": 4291,
      "\",\"answer\":\"95": 4292,
      "\",\"answer\":\"979\"}\n": 4293,
      "\",\"answer\":\"903\"}\n": 4294,
      "\",\"answer\":\"937\"}\n": 4295,
      "\",\"answer\":\"963\"}\n": 4296,
      ")\",\"answer\":\"210\"}\n": 4297,
      ")\",\"answer\":\"230\"}\n": 4298,
      ")\",\"answer\":\"218": 4299,
      ")\",\"answer\":\"206\"}\n": 4300,
      ")\",\"answer\":\"275\"}\n": 4301,
      ")\",\"answer\":\"259\"}\n": 4302,
      ")\",\"answer\":\"219\"}\n": 4303,
      ")\",\"answer\":\"261\"}\n": 4304,
      ")\",\"answer\":\"265\"}\n": 4305,
      ")\",\"answer\":\"299\"}\n": 4306,
      ")\",\"answer\":\"202\"}\n": 4307,
      ")\",\"answer\":\"209\"}\n": 4308,
      ")\",\"answer\":\"2184\"}\n": 4309,
      ")\",\"answer\":\"2156\"}\n": 4310,
      "{\"prompt\":\"(2 - 7": 4311,
      "{\"prompt\":\"(21 * 10": 4312,
      "{\"prompt\":\"(22 * 2": 4313,
      "{\"prompt\":\"(24 + 5": 4314,
      "{\"prompt\":\"(22 + 5": 4315,
      "{\"prompt\":\"(29 - 2": 4316,
      "{\"prompt\":\"(28 + 8": 4317,
      "{\"prompt\":\"(21 - 2": 4318,
      "{\"prompt\":\"(24 * 2": 4319,
      "{\"prompt\":\"(21 + 8": 4320,
      "{\"prompt\":\"(24 + 1": 4321,
      "{\"prompt\":\"(29 + 3": 4322,
      "{\"prompt\":\"(21 + 4": 4323,
      "{\"prompt\":\"(21 * 8": 4324,
      "{\"prompt\":\"(23 * 4": 4325,
      "{\"prompt\":\"(21 - 1": 4326,
      "{\"prompt\":\"(22 + 1": 4327,
      "{\"prompt\":\"(23 + 8": 4328,
      "{\"prompt\":\"(29 * 10": 4329,
      "{\"prompt\":\"(23 + 4": 4330,
      "{\"prompt\":\"(28 * 8": 4331,
      "{\"prompt\":\"(28 + 1": 4332,
      "{\"prompt\":\"(23 * 5": 4333,
      "{\"prompt\":\"(28 * 10": 4334,
      "{\"prompt\":\"(24 + 9": 4335,
      "{\"prompt\":\"(22 + 10": 4336,
      "{\"prompt\":\"(23 - 6": 4337,
      "{\"prompt\":\"(28 * 3": 4338,
      "{\"prompt\":\"(28 - 3": 4339,
      "{\"prompt\":\"(29 * 3": 4340,
      "{\"prompt\":\"(24 - 8": 4341,
      "{\"prompt\":\"(23 - 2": 4342,
      "{\"prompt\":\"(29 - 6": 4343,
      ") - (10": 4344,
      ") - (77": 4345,
      ") - (13": 4346,
      ") - (20": 4347,
      ") + (40": 4348,
      ") + (11": 4349,
      ") + (12": 4350,
      "{\"prompt\":\"(73 + 1": 4351,
      "{\"prompt\":\"(71 - 5": 4352,
      "{\"prompt\":\"(72 - 6": 4353,
      "{\"prompt\":\"(72 + 7": 4354,
      "{\"prompt\":\"(73 + 7": 4355,
      "{\"prompt\":\"(73 + 9": 4356,
      "{\"prompt\":\"(74 + 5": 4357,
      "{\"prompt\":\"(75 + 9": 4358,
      "{\"prompt\":\"(71 * 1": 4359,
      "{\"prompt\":\"(74 * 4": 4360,
      "{\"prompt\":\"(71 - 6": 4361,
      "{\"prompt\":\"(72 * 10": 4362,
      "{\"prompt\":\"(73 - 5": 4363,
      "{\"prompt\":\"(74 + 1": 4364,
      "{\"prompt\":\"(71 + 10": 4365,
      "{\"prompt\":\"(75 * 9": 4366,
      "{\"prompt\":\"(72 + 8": 4367,
      "{\"prompt\":\"(72 + 1": 4368,
      "{\"prompt\":\"(73 - 7": 4369,
      "{\"prompt\":\"(72 + 2": 4370,
      "{\"prompt\":\"(75 + 8": 4371,
      "{\"prompt\":\"(79 + 4": 4372,
      "{\"prompt\":\"(79 * 4": 4373,
      "{\"prompt\":\"(74 + 3": 4374,
      "{\"prompt\":\"(79 * 2": 4375,
      "{\"prompt\":\"(74 * 6": 4376,
      "\",\"answer\":\"-12": 4377,
      "\",\"answer\":\"-16": 4378,
      "\",\"answer\":\"-140\"}\n": 4379,
      "\",\"answer\":\"-128\"}\n": 4380,
      "\",\"answer\":\"-172\"}\n": 4381,
      "\",\"answer\":\"-186\"}\n": 4382,
      "\",\"answer\":\"-111\"}\n": 4383,
      "\",\"answer\":\"-127\"}\n": 4384,
      "\",\"answer\":\"-197\"}\n": 4385,
      "\",\"answer\":\"-149\"}\n": 4386,
      "{\"prompt\":\"(1 - 4": 4387,
      "{\"prompt\":\"(13 + 7": 4388,
      "{\"prompt\":\"(11 - 10": 4389,
      "{\"prompt\":\"(15 + 4": 4390,
      "{\"prompt\":\"(11 * 2": 4391,
      "{\"prompt\":\"(19 + 8": 4392,
      "{\"prompt\":\"(19 * 8": 4393,
      "{\"prompt\":\"(13 - 4": 4394,
      "{\"prompt\":\"(14 * 3": 4395,
      "{\"prompt\":\"(13 + 8": 4396,
      "{\"prompt\":\"(11 * 3": 4397,
      "{\"prompt\":\"(13 * 5": 4398,
      "{\"prompt\":\"(14 - 1": 4399,
      "{\"prompt\":\"(15 + 8": 4400,
      "{\"prompt\":\"(14 - 6": 4401,
      "{\"prompt\":\"(14 * 5": 4402,
      "{\"prompt\":\"(11 + 1": 4403,
      "{\"prompt\":\"(19 * 3": 4404,
      "{\"prompt\":\"(14 + 10": 4405,
      "{\"prompt\":\"(13 + 5": 4406,
      "{\"prompt\":\"(8 - 9": 4407,
      "{\"prompt\":\"(8 - 4": 4408,
      "{\"prompt\":\"(83 + 1": 4409,
      "{\"prompt\":\"(83 - 1": 4410,
      "{\"prompt\":\"(82 - 6": 4411,
      "{\"prompt\":\"(84 + 5": 4412,
      "{\"prompt\":\"(84 + 7": 4413,
      "{\"prompt\":\"(88 - 8": 4414,
      "{\"prompt\":\"(89 + 9": 4415,
      "{\"prompt\":\"(81 * 5": 4416,
      "{\"prompt\":\"(89 + 3": 4417,
      "{\"prompt\":\"(84 * 3": 4418,
      "{\"prompt\":\"(85 * 9": 4419,
      "{\"prompt\":\"(85 - 10": 4420,
      "{\"prompt\":\"(86 + 1": 4421,
      "{\"prompt\":\"(89 + 1": 4422,
      "{\"prompt\":\"(84 * 8": 4423,
      "{\"prompt\":\"(85 - 3": 4424,
      "{\"prompt\":\"(88 * 9": 4425,
      "{\"prompt\":\"(84 * 9": 4426,
      "{\"prompt\":\"(86 - 2": 4427,
      "{\"prompt\":\"(88 * 8": 4428,
      "{\"prompt\":\"(82 + 2": 4429,
      "{\"prompt\":\"(84 - 3": 4430,
      "{\"prompt\":\"(84 - 10": 4431,
      "{\"prompt\":\"(85 - 8": 4432,
      "{\"prompt\":\"(89 + 5": 4433,
      "{\"prompt\":\"(82 + 6": 4434,
      "{\"prompt\":\"(84 - 7": 4435,
      "{\"prompt\":\"(88 - 1": 4436,
      "{\"prompt\":\"(83 - 8": 4437,
      "{\"prompt\":\"(82 * 5": 4438,
      "{\"prompt\":\"(84 * 6": 4439,
      "{\"prompt\":\"(88 * 5": 4440,
      "\",\"answer\":\"108": 4441,
      "\",\"answer\":\"109": 4442,
      "\",\"answer\":\"1036\"}\n": 4443,
      "\",\"answer\":\"1092\"}\n": 4444,
      "\",\"answer\":\"1016\"}\n": 4445,
      "\",\"answer\":\"1054\"}\n": 4446,
      "\",\"answer\":\"10500\"}\n": 4447,
      "\",\"answer\":\"10560\"}\n": 4448,
      "{\"prompt\":\"(9 * 10": 4449,
      "{\"prompt\":\"(98 + 7": 4450,
      "{\"prompt\":\"(91 * 4": 4451,
      "{\"prompt\":\"(94 + 7": 4452,
      "{\"prompt\":\"(91 - 7": 4453,
      "{\"prompt\":\"(92 * 7": 4454,
      "{\"prompt\":\"(98 + 10": 4455,
      "{\"prompt\":\"(99 - 3": 4456,
      "{\"prompt\":\"(91 * 1": 4457,
      "{\"prompt\":\"(94 * 2": 4458,
      "{\"prompt\":\"(94 * 10": 4459,
      "{\"prompt\":\"(98 - 8": 4460,
      "{\"prompt\":\"(92 - 9": 4461,
      "{\"prompt\":\"(99 + 3": 4462,
      "{\"prompt\":\"(91 * 8": 4463,
      "{\"prompt\":\"(98 + 5": 4464,
      "{\"prompt\":\"(94 * 8": 4465,
      "{\"prompt\":\"(92 - 2": 4466,
      "{\"prompt\":\"(91 * 3": 4467,
      "{\"prompt\":\"(94 - 10": 4468,
      "{\"prompt\":\"(95 * 7": 4469,
      "{\"prompt\":\"(98 * 10": 4470,
      "{\"prompt\":\"(92 - 1": 4471,
      "{\"prompt\":\"(92 - 5": 4472,
      "{\"prompt\":\"(93 + 2": 4473,
      "{\"prompt\":\"(97 + 3": 4474,
      "{\"prompt\":\"(94 - 5": 4475,
      "{\"prompt\":\"(6 - 6": 4476,
      "{\"prompt\":\"(63 + 1": 4477,
      "{\"prompt\":\"(61 + 7": 4478,
      "{\"prompt\":\"(61 * 6": 4479,
      "{\"prompt\":\"(63 + 6": 4480,
      "{\"prompt\":\"(63 * 8": 4481,
      "{\"prompt\":\"(61 * 9": 4482,
      "{\"prompt\":\"(63 - 9": 4483,
      "{\"prompt\":\"(68 - 8": 4484,
      "{\"prompt\":\"(69 + 8": 4485,
      "{\"prompt\":\"(61 - 6": 4486,
      "{\"prompt\":\"(63 - 4": 4487,
      "{\"prompt\":\"(66 + 1": 4488,
      "{\"prompt\":\"(69 - 10": 4489,
      "{\"prompt\":\"(62 + 8": 4490,
      "{\"prompt\":\"(63 + 8": 4491,
      "{\"prompt\":\"(66 + 3": 4492,
      "{\"prompt\":\"(65 + 1": 4493,
      "{\"prompt\":\"(66 - 2": 4494,
      "{\"prompt\":\"(60 - 2": 4495,
      "{\"prompt\":\"(62 + 9": 4496,
      "{\"prompt\":\"(62 + 10": 4497,
      "{\"prompt\":\"(68 * 3": 4498,
      "{\"prompt\":\"(68 * 6": 4499,
      "{\"prompt\":\"(69 * 3": 4500,
      "{\"prompt\":\"(66 * 1": 4501,
      "{\"prompt\":\"(69 - 7": 4502,
      "{\"prompt\":\"(62 + 3": 4503,
      "{\"prompt\":\"(63 + 5": 4504,
      "{\"prompt\":\"(65 + 7": 4505,
      "{\"prompt\":\"(68 - 2": 4506,
      "{\"prompt\":\"(60 * 1": 4507,
      "{\"prompt\":\"(65 - 1": 4508,
      "{\"prompt\":\"(60 * 6": 4509,
      "{\"prompt\":\"(42 - 6": 4510,
      "{\"prompt\":\"(43 * 10": 4511,
      "{\"prompt\":\"(41 - 10": 4512,
      "{\"prompt\":\"(43 + 6": 4513,
      "{\"prompt\":\"(41 * 9": 4514,
      "{\"prompt\":\"(44 * 4": 4515,
      "{\"prompt\":\"(43 - 5": 4516,
      "{\"prompt\":\"(41 + 10": 4517,
      "{\"prompt\":\"(43 * 4": 4518,
      "{\"prompt\":\"(43 - 4": 4519,
      "{\"prompt\":\"(42 - 2": 4520,
      "{\"prompt\":\"(44 - 4": 4521,
      "{\"prompt\":\"(45 + 6": 4522,
      "{\"prompt\":\"(45 * 7": 4523,
      "{\"prompt\":\"(44 + 9": 4524,
      "{\"prompt\":\"(43 - 6": 4525,
      "{\"prompt\":\"(42 - 8": 4526,
      "{\"prompt\":\"(45 * 8": 4527,
      "{\"prompt\":\"(41 - 1) - 1": 4528,
      ") * (40": 4529,
      ") * (19": 4530,
      ") * (46": 4531,
      ") * (78": 4532,
      ") * (71": 4533,
      ") * (18": 4534,
      ") * (70": 4535,
      ")\",\"answer\":\"380\"}\n": 4536,
      ")\",\"answer\":\"320\"}\n": 4537,
      ")\",\"answer\":\"340\"}\n": 4538,
      ")\",\"answer\":\"328\"}\n": 4539,
      ")\",\"answer\":\"304\"}\n": 4540,
      ")\",\"answer\":\"398\"}\n": 4541,
      ")\",\"answer\":\"381\"}\n": 4542,
      ")\",\"answer\":\"383\"}\n": 4543,
      ")\",\"answer\":\"391\"}\n": 4544,
      "\",\"answer\":\"1232\"}\n": 4545,
      "\",\"answer\":\"1292\"}\n": 4546,
      "\",\"answer\":\"1275\"}\n": 4547,
      "\",\"answer\":\"1170\"}\n": 4548,
      "\",\"answer\":\"1178\"}\n": 4549,
      "\",\"answer\":\"1138\"}\n": 4550,
      "\",\"answer\":\"-228\"}\n": 4551,
      "\",\"answer\":\"-288\"}\n": 4552,
      "\",\"answer\":\"-252\"}\n": 4553,
      "\",\"answer\":\"-276\"}\n": 4554,
      "\",\"answer\":\"-254\"}\n": 4555,
      "\",\"answer\":\"-284\"}\n": 4556,
      "\",\"answer\":\"-267\"}\n": 4557,
      "\",\"answer\":\"-221\"}\n": 4558,
      "\",\"answer\":\"-217\"}\n": 4559,
      "\",\"answer\":\"-237\"}\n": 4560,
      "\",\"answer\":\"149": 4561,
      "\",\"answer\":\"1408\"}\n": 4562,
      "\",\"answer\":\"1474": 4563,
      "\",\"answer\":\"1476\"}\n": 4564,
      "\",\"answer\":\"1300\"}\n": 4565,
      "\",\"answer\":\"1320\"}\n": 4566,
      "\",\"answer\":\"1350\"}\n": 4567,
      "\",\"answer\":\"1326\"}\n": 4568,
      "\",\"answer\":\"1346\"}\n": 4569,
      "\",\"answer\":\"1386\"}\n": 4570,
      "\",\"answer\":\"-320\"}\n": 4571,
      "\",\"answer\":\"-312\"}\n": 4572,
      "\",\"answer\":\"-346\"}\n": 4573,
      "\",\"answer\":\"-327\"}\n": 4574,
      "\",\"answer\":\"-339\"}\n": 4575,
      "\",\"answer\":\"-362\"}\n": 4576,
      "\",\"answer\":\"-343\"}\n": 4577,
      "\",\"answer\":\"-444\"}\n": 4578,
      "\",\"answer\":\"-456\"}\n": 4579,
      "\",\"answer\":\"-436\"}\n": 4580,
      "\",\"answer\":\"-494\"}\n": 4581,
      "\",\"answer\":\"-482\"}\n": 4582,
      "\",\"answer\":\"-485\"}\n": 4583,
      "\",\"answer\":\"-455\"}\n": 4584,
      "\",\"answer\":\"-469\"}\n": 4585,
      ") - 5) + 2": 4586,
      ") - 5) - 8": 4587,
      ") - 5) + 1": 4588,
      ") - 5)\",\"answer\":\"8": 4589,
      ") - 5 + (2": 4590,
      " + ((100": 4591,
      " + ((19": 4592,
      " + ((11": 4593,
      " + ((47": 4594,
      " + ((79": 4595,
      " + ((46": 4596,
      " + ((70": 4597,
      " + ((20": 4598,
      " + ((1 - 3": 4599,
      " + ((8 * 7": 4600,
      " + ((7 - 4": 4601,
      ") + 41": 4602,
      ") + 4 * 8": 4603,
      ") + 4) + 9": 4604,
      ") + 4) * 2": 4605,
      ") + 4\",\"answer\":\"9\"}\n": 4606,
      " - ((100": 4607,
      " - ((19": 4608,
      " - ((76": 4609,
      " - ((77": 4610,
      " - ((79": 4611,
      " - ((46": 4612,
      " - ((18": 4613,
      " - ((75": 4614,
      " - ((70": 4615,
      " - ((15": 4616,
      ") * 3\",\"answer\":\"-1": 4617,
      ") * 3\",\"answer\":\"13": 4618,
      ") * 3\",\"answer\":\"-4": 4619,
      ")\",\"answer\":\"428\"}\n": 4620,
      ")\",\"answer\":\"436\"}\n": 4621,
      ")\",\"answer\":\"424\"}\n": 4622,
      ")\",\"answer\":\"496\"}\n": 4623,
      ")\",\"answer\":\"416\"}\n": 4624,
      ")\",\"answer\":\"464\"}\n": 4625,
      ")\",\"answer\":\"441\"}\n": 4626,
      ")\",\"answer\":\"403\"}\n": 4627,
      ")\",\"answer\":\"52": 4628,
      ")\",\"answer\":\"59\"}\n": 4629,
      ")\",\"answer\":\"546\"}\n": 4630,
      ")\",\"answer\":\"576\"}\n": 4631,
      ")\",\"answer\":\"589\"}\n": 4632,
      ") - 41": 4633,
      ") - 42": 4634,
      ") - 45": 4635,
      ") - 4) * 3": 4636,
      ") - 4) + 2": 4637,
      ") - 46\",\"answer\":\"2": 4638,
      ") + 63": 4639,
      ") + 64": 4640,
      ") + 6) + 9": 4641,
      ") + 69 + 5": 4642,
      ") * 41": 4643,
      ") * 4) * 8": 4644,
      ") * 4) * 1": 4645,
      ") * 44\",\"answer\":\"3": 4646,
      ") * 47\",\"answer\":\"4": 4647,
      ") * 43\",\"answer\":\"2": 4648,
      "\",\"answer\":\"158": 4649,
      "\",\"answer\":\"1548\"}\n": 4650,
      "\",\"answer\":\"1512\"}\n": 4651,
      "\",\"answer\":\"1537\"}\n": 4652,
      ") - 6) - 3": 4653,
      ") - 65\",\"answer\":\"3": 4654,
      ") + 2)\",\"answer\":\"3": 4655,
      ") + 25\",\"answer\":\"4": 4656,
      ") + 2 + 94": 4657,
      ") - 81": 4658,
      ") - 8)\",\"answer\":\"3": 4659,
      ") - 8) + 2": 4660,
      ") - 8) * 9": 4661,
      ") - 8) - (9": 4662,
      ") * 76": 4663,
      ") * 7 - 8": 4664,
      ") * 7\",\"answer\":\"-4": 4665,
      ") * 7) + 3": 4666,
      ") * 72\",\"answer\":\"2": 4667,
      ") * 79\",\"answer\":\"16": 4668,
      ") + 90": 4669,
      ") + 9\",\"answer\":\"2": 4670,
      ") + 9 + 9": 4671,
      ") + 9)\",\"answer\":\"20": 4672,
      ") * 66": 4673,
      ") * 6\",\"answer\":\"8": 4674,
      ") * 6) * 2": 4675,
      ") * 68\",\"answer\":\"4": 4676,
      ") - 17": 4677,
      ") - 1) + 4": 4678,
      ") - 9 - 8": 4679,
      ") - 9\",\"answer\":\"8": 4680,
      ") - 9)\",\"answer\":\"5": 4681,
      ") - 9)\",\"answer\":\"6": 4682,
      ") - 9) + 1": 4683,
      ") - 9) - (3": 4684,
      ") * 5) + 8": 4685,
      ") * 56\",\"answer\":\"3": 4686,
      ") * 50\",\"answer\":\"2": 4687,
      ") * 57\",\"answer\":\"5": 4688,
      ") * 51\",\"answer\":\"5": 4689,
      ")\",\"answer\":\"62": 4690,
      ")\",\"answer\":\"672\"}\n": 4691,
      ")\",\"answer\":\"696\"}\n": 4692,
      ")\",\"answer\":\"625\"}\n": 4693,
      ")\",\"answer\":\"674\"}\n": 4694,
      ")\",\"answer\":\"6640\"}\n": 4695,
      ") - 74": 4696,
      ") - 76": 4697,
      ") - 79": 4698,
      ") - 7) - 2": 4699,
      ") - 7\",\"answer\":\"111\"}\n": 4700,
      ") - 7\",\"answer\":\"47\"}\n": 4701,
      ") + 52": 4702,
      ") + 58": 4703,
      ") + 5) * 7": 4704,
      ") + 59\",\"answer\":\"3": 4705,
      ") + 53\",\"answer\":\"7": 4706,
      ") + 55 * 5": 4707,
      ") + 30": 4708,
      ") + 34": 4709,
      ") + 3 - 5": 4710,
      ") + 3 - 7": 4711,
      ") + 3)\",\"answer\":\"81\"}\n": 4712,
      ") + 3\",\"answer\":\"43\"}\n": 4713,
      ") + 75": 4714,
      ") + 7) + 7": 4715,
      ") + 7) * 2": 4716,
      ") + 77 + 8": 4717,
      ") + 7) - (5": 4718,
      ") - 36": 4719,
      ") - 31\",\"answer\":\"28\"}\n": 4720,
      ") * 2\",\"answer\":\"4": 4721,
      ") * 2) - (": 4722,
      ") * 2) - 5": 4723,
      ") * 2)\",\"answer\":\"7": 4724,
      ") * 2)\",\"answer\":\"-1": 4725,
      " * ((72": 4726,
      " * ((40": 4727,
      " * ((19": 4728,
      " * ((71": 4729,
      " * ((75": 4730,
      " * ((20": 4731,
      "\",\"answer\":\"-559\"}\n": 4732,
      "\",\"answer\":\"-505\"}\n": 4733,
      ") * 8 + 7": 4734,
      ") * 8\",\"answer\":\"4": 4735,
      ") * 8\",\"answer\":\"6": 4736,
      ") * 8)\",\"answer\":\"7": 4737,
      ") * 8)\",\"answer\":\"8": 4738,
      ") * 8 + (6": 4739,
      ") * 8)\",\"answer\":\"10": 4740,
      ") * 85\",\"answer\":\"5": 4741,
      ") * 1) + (": 4742,
      ") * 9 - 7": 4743,
      ") * 9\",\"answer\":\"-6": 4744,
      ") - 2) * (3": 4745,
      ") - 27\",\"answer\":\"6": 4746,
      ") - 2)\",\"answer\":\"2\"}\n": 4747,
      "\",\"answer\":\"1776\"}\n": 4748,
      "\",\"answer\":\"1770\"}\n": 4749,
      "\",\"answer\":\"1798\"}\n": 4750,
      "\",\"answer\":\"1782\"}\n": 4751,
      ") + 1\",\"answer\":\"4": 4752,
      ") + 1\",\"answer\":\"52\"}\n": 4753,
      ")\",\"answer\":\"-18\"}\n": 4754,
      ")\",\"answer\":\"-144\"}\n": 4755,
      ")\",\"answer\":\"-114\"}\n": 4756,
      ")\",\"answer\":\"-167\"}\n": 4757,
      ")\",\"answer\":\"-157\"}\n": 4758,
      ")\",\"answer\":\"-169\"}\n": 4759,
      ")\",\"answer\":\"-199\"}\n": 4760,
      ")\",\"answer\":\"82": 4761,
      ")\",\"answer\":\"86": 4762,
      ")\",\"answer\":\"892\"}\n": 4763,
      ")\",\"answer\":\"864\"}\n": 4764,
      ")\",\"answer\":\"8280\"}\n": 4765,
      ")\",\"answer\":\"8544\"}\n": 4766,
      "\",\"answer\":\"188\"}\n": 4767,
      "\",\"answer\":\"1880\"}\n": 4768,
      "\",\"answer\":\"1823\"}\n": 4769,
      "\",\"answer\":\"198\"}\n": 4770,
      "\",\"answer\":\"196\"}\n": 4771,
      "\",\"answer\":\"197\"}\n": 4772,
      "\",\"answer\":\"1900\"}\n": 4773,
      "\",\"answer\":\"1960\"}\n": 4774,
      "\",\"answer\":\"1904\"}\n": 4775,
      "\",\"answer\":\"1953\"}\n": 4776,
      ") - 10 + 3": 4777,
      ") - 10)\",\"answer\":\"9": 4778,
      ") - 10)\",\"answer\":\"101\"}\n": 4779,
      ") - 10)\",\"answer\":\"383\"}\n": 4780,
      ")\",\"answer\":\"-234\"}\n": 4781,
      ")\",\"answer\":\"-218\"}\n": 4782,
      ")\",\"answer\":\"-266\"}\n": 4783,
      ")\",\"answer\":\"-267\"}\n": 4784,
      ")\",\"answer\":\"-223\"}\n": 4785,
      "\",\"answer\":\"167\"}\n": 4786,
      "\",\"answer\":\"1620\"}\n": 4787,
      " - (91 + 4": 4788,
      " - (99 - 10": 4789,
      " - (94 - 5": 4790,
      " - (96 - 4": 4791,
      " - (90 + 8": 4792,
      "{\"prompt\":\"62 * 2": 4793,
      "{\"prompt\":\"62 + 8": 4794,
      "{\"prompt\":\"62 + 3": 4795,
      "{\"prompt\":\"62 - 4": 4796,
      "{\"prompt\":\"62 - 7": 4797,
      "{\"prompt\":\"62 - 92": 4798,
      "{\"prompt\":\"62 * 29": 4799,
      ")\",\"answer\":\"93": 4800,
      "723\"}\n": 4801,
      ") + 10)\",\"answer\":\"4": 4802,
      "{\"prompt\":\"51 - 1": 4803,
      "{\"prompt\":\"51 * 3": 4804,
      "{\"prompt\":\"51 - (3": 4805,
      "{\"prompt\":\"51 - 88": 4806,
      "{\"prompt\":\"95 * 7": 4807,
      "{\"prompt\":\"95 - 1": 4808,
      "{\"prompt\":\"95 - 9": 4809,
      "{\"prompt\":\"95 - 6": 4810,
      "{\"prompt\":\"95 + 1": 4811,
      "{\"prompt\":\"95 + 50": 4812,
      "{\"prompt\":\"95 * 26\",\"answer\":\"2": 4813,
      "{\"prompt\":\"95 - 59\",\"answer\":\"3": 4814,
      "{\"prompt\":\"((41 * 10": 4815,
      "{\"prompt\":\"((44 + 5": 4816,
      "{\"prompt\":\"((44 * 10": 4817,
      "{\"prompt\":\"((42 * 6": 4818,
      "{\"prompt\":\"((42 + 1": 4819,
      "{\"prompt\":\"((48 * 9": 4820,
      "{\"prompt\":\"((44 - 10": 4821,
      "{\"prompt\":\"((49 - 4": 4822,
      "{\"prompt\":\"((47 + 5": 4823,
      "{\"prompt\":\"((40 - 10": 4824,
      "{\"prompt\":\"38 * 2": 4825,
      "{\"prompt\":\"38 - 5": 4826,
      "{\"prompt\":\"38 * 8": 4827,
      "{\"prompt\":\"38 + 2": 4828,
      "{\"prompt\":\"38 + 1": 4829,
      "{\"prompt\":\"38 * (8": 4830,
      "{\"prompt\":\"38 - (2": 4831,
      "{\"prompt\":\"38 - (4": 4832,
      "{\"prompt\":\"38 - 97": 4833,
      "{\"prompt\":\"38 - 57": 4834,
      "{\"prompt\":\"38 * 50": 4835,
      "{\"prompt\":\"38 * 91\",\"answer\":\"3": 4836,
      "{\"prompt\":\"93 * 2": 4837,
      "{\"prompt\":\"93 + 9": 4838,
      "{\"prompt\":\"93 * 9": 4839,
      "{\"prompt\":\"93 - 1": 4840,
      "{\"prompt\":\"93 * 8": 4841,
      "{\"prompt\":\"93 + (2": 4842,
      "{\"prompt\":\"93 - (6": 4843,
      "{\"prompt\":\"93 * 21": 4844,
      "{\"prompt\":\"44 + 8": 4845,
      "{\"prompt\":\"44 * 8": 4846,
      "{\"prompt\":\"44 + (9": 4847,
      "{\"prompt\":\"44 - 88": 4848,
      "{\"prompt\":\"44 - 55": 4849,
      "{\"prompt\":\"44 + 6 * 1": 4850,
      "{\"prompt\":\"71 + 5": 4851,
      "{\"prompt\":\"71 + 7": 4852,
      "{\"prompt\":\"71 + 3": 4853,
      "{\"prompt\":\"71 * 9": 4854,
      "{\"prompt\":\"71 * 3": 4855,
      "{\"prompt\":\"71 * 8": 4856,
      "{\"prompt\":\"71 - 4": 4857,
      "{\"prompt\":\"71 - (8": 4858,
      "{\"prompt\":\"71 * 3\",\"answer\":\"2": 4859,
      "{\"prompt\":\"71 * 60\",\"answer\":\"4": 4860,
      "{\"prompt\":\"92 * 3": 4861,
      "{\"prompt\":\"92 * (8": 4862,
      "{\"prompt\":\"92 + (6": 4863,
      "{\"prompt\":\"92 - (2": 4864,
      "{\"prompt\":\"92 * (11": 4865,
      "{\"prompt\":\"17 + 6": 4866,
      "{\"prompt\":\"17 * 9": 4867,
      "{\"prompt\":\"17 + 1": 4868,
      "{\"prompt\":\"17 + 10": 4869,
      "{\"prompt\":\"17 - (2": 4870,
      "{\"prompt\":\"17 + (3": 4871,
      "{\"prompt\":\"17 + 86": 4872,
      "{\"prompt\":\"34 * 2": 4873,
      "{\"prompt\":\"34 * 9": 4874,
      "{\"prompt\":\"34 + 2": 4875,
      "{\"prompt\":\"34 * 1": 4876,
      "{\"prompt\":\"34 * (6": 4877,
      "{\"prompt\":\"34 + 76": 4878,
      "\",\"answer\":\"-79\"}\n": 4879,
      "\",\"answer\":\"-758\"}\n": 4880,
      "\",\"answer\":\"-703\"}\n": 4881,
      "{\"prompt\":\"81 * 2": 4882,
      "{\"prompt\":\"81 + 8": 4883,
      "{\"prompt\":\"81 - 9": 4884,
      "{\"prompt\":\"81 * 3": 4885,
      "{\"prompt\":\"81 - 4": 4886,
      "{\"prompt\":\"81 * 5": 4887,
      "{\"prompt\":\"81 + (6": 4888,
      "{\"prompt\":\"81 + 32": 4889,
      "{\"prompt\":\"89 + 9": 4890,
      "{\"prompt\":\"89 + 1": 4891,
      "{\"prompt\":\"89 * 5": 4892,
      "{\"prompt\":\"89 + (8": 4893,
      "{\"prompt\":\"21 + 3": 4894,
      "{\"prompt\":\"21 * 4": 4895,
      "{\"prompt\":\"21 - 5": 4896,
      "{\"prompt\":\"21 * 3": 4897,
      "{\"prompt\":\"21 * 8": 4898,
      "{\"prompt\":\"21 + 2": 4899,
      "{\"prompt\":\"21 * 1": 4900,
      "{\"prompt\":\"21 - 10": 4901,
      "{\"prompt\":\"83 * 2": 4902,
      "{\"prompt\":\"83 + 4": 4903,
      "{\"prompt\":\"83 * 9": 4904,
      "{\"prompt\":\"83 - 4": 4905,
      "{\"prompt\":\"83 * (2": 4906,
      "{\"prompt\":\"83 * (9": 4907,
      "{\"prompt\":\"83 + 91": 4908,
      "{\"prompt\":\"83 - 78": 4909,
      "{\"prompt\":\"40 * 7": 4910,
      "{\"prompt\":\"40 + 5": 4911,
      "{\"prompt\":\"40 + 7": 4912,
      "{\"prompt\":\"40 + 9": 4913,
      "{\"prompt\":\"40 + ((": 4914,
      "{\"prompt\":\"40 * (6": 4915,
      "{\"prompt\":\"40 * ((8": 4916,
      "{\"prompt\":\"40 - ((71": 4917,
      " * (81 * 7": 4918,
      " * (83 - 1": 4919,
      " * (85 - 9": 4920,
      " * (83 + 6": 4921,
      " * (85 + 9": 4922,
      " * (84 + 3": 4923,
      " * (80 + 3": 4924,
      " * (88 + 3": 4925,
      ")\",\"answer\":\"-30\"}\n": 4926,
      ")\",\"answer\":\"-39\"}\n": 4927,
      ")\",\"answer\":\"-324\"}\n": 4928,
      ")\",\"answer\":\"-358\"}\n": 4929,
      ")\",\"answer\":\"-386\"}\n": 4930,
      ")\",\"answer\":\"-306\"}\n": 4931,
      "{\"prompt\":\"36 + 3": 4932,
      "{\"prompt\":\"36 + 9": 4933,
      "{\"prompt\":\"36 * 5": 4934,
      "{\"prompt\":\"36 + 10": 4935,
      "{\"prompt\":\"36 + (2": 4936,
      "{\"prompt\":\"36 * (3": 4937,
      "{\"prompt\":\"36 - 84": 4938,
      "{\"prompt\":\"36 * ((3": 4939,
      "{\"prompt\":\"36 * 67\",\"answer\":\"2": 4940,
      "404\"}\n": 4941,
      "405\"}\n": 4942,
      "401\"}\n": 4943,
      "4000\"}\n": 4944,
      ") * 10)\",\"answer\":\"-1": 4945,
      ") * 10\",\"answer\":\"-6": 4946,
      ") * 10 + (3": 4947,
      "{\"prompt\":\"60 - (3": 4948,
      "{\"prompt\":\"60 + (9": 4949,
      "{\"prompt\":\"60 - (8": 4950,
      "{\"prompt\":\"47 + 3": 4951,
      "{\"prompt\":\"47 * 4": 4952,
      "{\"prompt\":\"47 * 3": 4953,
      "{\"prompt\":\"47 + 1": 4954,
      "{\"prompt\":\"47 - 4": 4955,
      "{\"prompt\":\"47 * 17": 4956,
      "{\"prompt\":\"86 - 8": 4957,
      "{\"prompt\":\"86 + 8": 4958,
      "{\"prompt\":\"86 - 2": 4959,
      "{\"prompt\":\"86 - 10": 4960,
      "{\"prompt\":\"86 - 95": 4961,
      "{\"prompt\":\"86 - 73": 4962,
      "{\"prompt\":\"86 + 18": 4963,
      "{\"prompt\":\"86 - 16": 4964,
      "{\"prompt\":\"69 + 7": 4965,
      "{\"prompt\":\"69 - 1": 4966,
      "{\"prompt\":\"69 + (2": 4967,
      "{\"prompt\":\"69 - 85": 4968,
      "{\"prompt\":\"69 - 9 * 1": 4969,
      "{\"prompt\":\"77 + 3": 4970,
      "{\"prompt\":\"77 - 9": 4971,
      "{\"prompt\":\"77 - 4": 4972,
      "{\"prompt\":\"77 * (3": 4973,
      "{\"prompt\":\"77 * 43\",\"answer\":\"3": 4974,
      "{\"prompt\":\"77 + 4\",\"answer\":\"81\"}\n": 4975,
      "{\"prompt\":\"54 - 6": 4976,
      "{\"prompt\":\"54 - 3": 4977,
      "{\"prompt\":\"54 + 1": 4978,
      "{\"prompt\":\"54 * (2": 4979,
      "{\"prompt\":\"100 + 8": 4980,
      "{\"prompt\":\"100 * 6": 4981,
      "{\"prompt\":\"100 - 10": 4982,
      "{\"prompt\":\"100 + (6": 4983,
      " + (23 - 1": 4984,
      " + (24 * 3": 4985,
      " + (23 - 10": 4986,
      " + (24 + 10": 4987,
      "{\"prompt\":\"67 * 3": 4988,
      "{\"prompt\":\"67 - (2": 4989,
      "{\"prompt\":\"67 + (4": 4990,
      "{\"prompt\":\"67 + 59": 4991,
      "{\"prompt\":\"45 * 2": 4992,
      "{\"prompt\":\"45 + 7": 4993,
      "{\"prompt\":\"45 + 4": 4994,
      "{\"prompt\":\"45 + 6": 4995,
      "{\"prompt\":\"45 + 9": 4996,
      "{\"prompt\":\"45 * 8": 4997,
      "{\"prompt\":\"45 + 1": 4998,
      "{\"prompt\":\"45 * 1": 4999,
      "{\"prompt\":\"45 * (6": 5000,
      "{\"prompt\":\"45 + 30": 5001,
      "{\"prompt\":\"((33 * 9": 5002,
      "{\"prompt\":\"((36 - 5": 5003,
      "{\"prompt\":\"((30 + 1": 5004,
      "{\"prompt\":\"((36 + 2": 5005,
      "{\"prompt\":\"((35 * 5": 5006,
      "{\"prompt\":\"((30 - 9": 5007,
      " + (61 + 7": 5008,
      " + (68 + 9": 5009,
      " + (66 * 10": 5010,
      "{\"prompt\":\"80 + 8": 5011,
      "{\"prompt\":\"80 + 3": 5012,
      "{\"prompt\":\"80 - 9": 5013,
      "{\"prompt\":\"80 - 2": 5014,
      "{\"prompt\":\"80 * 6": 5015,
      "{\"prompt\":\"80 - 4": 5016,
      "{\"prompt\":\"80 - (13": 5017,
      "{\"prompt\":\"87 * 2": 5018,
      "{\"prompt\":\"87 - 5": 5019,
      "{\"prompt\":\"87 - 3": 5020,
      "{\"prompt\":\"87 - 7": 5021,
      "{\"prompt\":\"87 * (9": 5022,
      "{\"prompt\":\"87 - 82": 5023,
      "{\"prompt\":\"87 - 66\",\"answer\":\"2": 5024,
      "{\"prompt\":\"65 - 8": 5025,
      "{\"prompt\":\"65 + 7": 5026,
      "{\"prompt\":\"65 - 2": 5027,
      "{\"prompt\":\"65 * 6": 5028,
      "{\"prompt\":\"65 - (2": 5029,
      "{\"prompt\":\"23 + 4": 5030,
      "{\"prompt\":\"23 + 9": 5031,
      "{\"prompt\":\"23 - 6": 5032,
      "{\"prompt\":\"23 - 2": 5033,
      "{\"prompt\":\"23 * 6": 5034,
      "{\"prompt\":\"23 * 1": 5035,
      "{\"prompt\":\"23 - (2": 5036,
      "{\"prompt\":\"23 + (3": 5037,
      "{\"prompt\":\"23 - 71": 5038,
      "{\"prompt\":\"56 + 3": 5039,
      "{\"prompt\":\"56 - 1": 5040,
      "{\"prompt\":\"56 * 3": 5041,
      "{\"prompt\":\"56 - 2": 5042,
      "{\"prompt\":\"56 + (6": 5043,
      "{\"prompt\":\"56 - (4": 5044,
      "{\"prompt\":\"56 - 87": 5045,
      "{\"prompt\":\"56 - 97": 5046,
      "{\"prompt\":\"11 - 5": 5047,
      "{\"prompt\":\"11 - 2": 5048,
      "{\"prompt\":\"11 * 10": 5049,
      "{\"prompt\":\"11 + 10": 5050,
      " - (21 * 7": 5051,
      " - (22 * 10": 5052,
      " - (25 - 8": 5053,
      " - (25 * 6": 5054,
      "{\"prompt\":\"24 * 7": 5055,
      "{\"prompt\":\"24 * 6": 5056,
      "{\"prompt\":\"24 + (6": 5057,
      "{\"prompt\":\"24 - (6": 5058,
      "{\"prompt\":\"24 + 62": 5059,
      "{\"prompt\":\"28 + 7": 5060,
      "{\"prompt\":\"28 + 8": 5061,
      "{\"prompt\":\"28 * 9": 5062,
      "{\"prompt\":\"28 - 2": 5063,
      "{\"prompt\":\"28 + 1": 5064,
      "{\"prompt\":\"28 + (3": 5065,
      "{\"prompt\":\"28 * 50": 5066,
      "{\"prompt\":\"28 + 55": 5067,
      "{\"prompt\":\"29 + 3": 5068,
      "{\"prompt\":\"29 * 9": 5069,
      "{\"prompt\":\"29 + ((": 5070,
      "{\"prompt\":\"29 - (3": 5071,
      "{\"prompt\":\"29 - (8": 5072,
      "{\"prompt\":\"29 + 94": 5073,
      "{\"prompt\":\"29 + 40": 5074,
      "{\"prompt\":\"72 - 2": 5075,
      "{\"prompt\":\"72 - 3": 5076,
      "{\"prompt\":\"72 * 5": 5077,
      "{\"prompt\":\"72 - (6": 5078,
      "{\"prompt\":\"72 + (3": 5079,
      "{\"prompt\":\"72 * (9": 5080,
      "{\"prompt\":\"72 - 1 + 3": 5081,
      "{\"prompt\":\"76 - 3": 5082,
      "{\"prompt\":\"76 + 1": 5083,
      "{\"prompt\":\"76 * 1": 5084,
      "{\"prompt\":\"76 + (8": 5085,
      "{\"prompt\":\"76 * (3": 5086,
      "{\"prompt\":\"76 * (4": 5087,
      "{\"prompt\":\"76 - 96": 5088,
      " - (59 * 8": 5089,
      " - (59 - 10": 5090,
      " - (52 + 6": 5091,
      "{\"prompt\":\"25 - 8": 5092,
      "{\"prompt\":\"25 - 3": 5093,
      "{\"prompt\":\"25 - (2": 5094,
      "{\"prompt\":\"25 + (9": 5095,
      "{\"prompt\":\"25 + (8": 5096,
      "{\"prompt\":\"55 + 6": 5097,
      "{\"prompt\":\"55 - 3": 5098,
      "{\"prompt\":\"55 * 5": 5099,
      "{\"prompt\":\"55 - (6": 5100,
      "{\"prompt\":\"55 - (78": 5101,
      "196\"}\n": 5102,
      "197\"}\n": 5103,
      "{\"prompt\":\"68 - 1": 5104,
      "{\"prompt\":\"68 * 8": 5105,
      "{\"prompt\":\"68 - 2": 5106,
      "{\"prompt\":\"68 - 4": 5107,
      "{\"prompt\":\"68 - (9": 5108,
      "{\"prompt\":\"68 + 78\",\"answer\":\"14": 5109,
      "{\"prompt\":\"68 * 93\",\"answer\":\"6": 5110,
      "{\"prompt\":\"20 * 7": 5111,
      "{\"prompt\":\"20 * 2": 5112,
      "{\"prompt\":\"20 + 4": 5113,
      "{\"prompt\":\"20 - 6": 5114,
      "{\"prompt\":\"20 * 5": 5115,
      "{\"prompt\":\"20 * 100": 5116,
      "{\"prompt\":\"42 + 7": 5117,
      "{\"prompt\":\"42 - 3": 5118,
      "{\"prompt\":\"42 + 2": 5119,
      "{\"prompt\":\"42 + (6": 5120,
      "{\"prompt\":\"42 * (5": 5121,
      "{\"prompt\":\"75 * 1": 5122,
      "{\"prompt\":\"75 - 77": 5123,
      "{\"prompt\":\"96 * 7": 5124,
      "{\"prompt\":\"96 + 4": 5125,
      "{\"prompt\":\"96 * 3": 5126,
      "{\"prompt\":\"96 * 6": 5127,
      "{\"prompt\":\"96 + 2": 5128,
      "{\"prompt\":\"96 + (6": 5129,
      "{\"prompt\":\"96 + (5": 5130,
      "{\"prompt\":\"96 - 92": 5131,
      "{\"prompt\":\"96 - 49\",\"answer\":\"4": 5132,
      "{\"prompt\":\"53 * 9": 5133,
      "{\"prompt\":\"53 * 3": 5134,
      "{\"prompt\":\"53 * 5": 5135,
      "{\"prompt\":\"53 - (5": 5136,
      "{\"prompt\":\"53 * (11": 5137,
      "{\"prompt\":\"53 - (19": 5138,
      "{\"prompt\":\"53 * 7 - 3": 5139,
      "{\"prompt\":\"58 * 6": 5140,
      "{\"prompt\":\"58 - 3": 5141,
      "{\"prompt\":\"58 * (4": 5142,
      "{\"prompt\":\"13 + 4": 5143,
      "{\"prompt\":\"13 + 9": 5144,
      "118\"}\n": 5145,
      "479\"}\n": 5146,
      "47 * 7": 5147,
      "{\"prompt\":\"10 * 7": 5148,
      "{\"prompt\":\"10 * 6": 5149,
      "{\"prompt\":\"10 - 3": 5150,
      "{\"prompt\":\"10 - (3": 5151,
      "{\"prompt\":\"10 + (8": 5152,
      "{\"prompt\":\"10 * (3": 5153,
      "{\"prompt\":\"10 * 18": 5154,
      " - (37 - 1": 5155,
      " - (39 - 1": 5156,
      " - (36 * 2": 5157,
      " + (34 - 4": 5158,
      " + (38 - 9": 5159,
      "{\"prompt\":\"64 + (3": 5160,
      "{\"prompt\":\"64 * (2": 5161,
      "{\"prompt\":\"64 * (3": 5162,
      "{\"prompt\":\"64 * (5": 5163,
      "{\"prompt\":\"64 + 40": 5164,
      "{\"prompt\":\"48 * 8": 5165,
      "{\"prompt\":\"48 - 6": 5166,
      "{\"prompt\":\"48 - 3": 5167,
      "{\"prompt\":\"48 * (3": 5168,
      "{\"prompt\":\"48 + 100": 5169,
      "{\"prompt\":\"48 * 17\",\"answer\":\"8": 5170,
      "{\"prompt\":\"35 + 7": 5171,
      "{\"prompt\":\"35 * 9": 5172,
      "{\"prompt\":\"35 - 5": 5173,
      "{\"prompt\":\"35 * 3": 5174,
      "{\"prompt\":\"35 + 10": 5175,
      "{\"prompt\":\"35 + 89": 5176,
      "{\"prompt\":\"35 * 23\",\"answer\":\"8": 5177,
      "{\"prompt\":\"39 + 3": 5178,
      "{\"prompt\":\"39 * (9": 5179,
      "{\"prompt\":\"39 - 64": 5180,
      "{\"prompt\":\"39 + 31": 5181,
      "{\"prompt\":\"59 + 3": 5182,
      "{\"prompt\":\"59 - 1": 5183,
      "{\"prompt\":\"59 - 9": 5184,
      "{\"prompt\":\"59 * 5": 5185,
      "{\"prompt\":\"59 * 10": 5186,
      "{\"prompt\":\"59 * 94\",\"answer\":\"5": 5187,
      "{\"prompt\":\"((93 + 7": 5188,
      "{\"prompt\":\"((93 + 10": 5189,
      "{\"prompt\":\"((99 - 2": 5190,
      "{\"prompt\":\"((91 + 8": 5191,
      "{\"prompt\":\"((94 - 3": 5192,
      "{\"prompt\":\"((98 - 10": 5193,
      "{\"prompt\":\"((97 * 3": 5194,
      "{\"prompt\":\"84 * 7": 5195,
      "{\"prompt\":\"84 * 2": 5196,
      "{\"prompt\":\"84 + 8": 5197,
      "{\"prompt\":\"84 + 3": 5198,
      "{\"prompt\":\"84 - 1": 5199,
      "{\"prompt\":\"84 - 9": 5200,
      "{\"prompt\":\"84 - 5": 5201,
      "{\"prompt\":\"84 - 2": 5202,
      "{\"prompt\":\"84 - 3": 5203,
      "{\"prompt\":\"85 + 8": 5204,
      "{\"prompt\":\"85 - 6": 5205,
      "{\"prompt\":\"85 - 7": 5206,
      "{\"prompt\":\"85 * (8": 5207,
      "{\"prompt\":\"85 + 30": 5208,
      "{\"prompt\":\"66 - 1": 5209,
      "{\"prompt\":\"66 - 3": 5210,
      "{\"prompt\":\"66 + 35": 5211,
      "{\"prompt\":\"66 * 50\",\"answer\":\"3": 5212,
      "{\"prompt\":\"66 + 6\",\"answer\":\"72\"}\n": 5213,
      "{\"prompt\":\"14 - 1": 5214,
      "{\"prompt\":\"14 - (2": 5215,
      "{\"prompt\":\"14 - 70": 5216,
      "{\"prompt\":\"14 * 88": 5217,
      "{\"prompt\":\"16 * 7": 5218,
      "{\"prompt\":\"16 + 5": 5219,
      "{\"prompt\":\"16 - 8": 5220,
      "{\"prompt\":\"16 * 9": 5221,
      "{\"prompt\":\"16 * 3": 5222,
      "{\"prompt\":\"16 * 6": 5223,
      "{\"prompt\":\"16 - 4": 5224,
      "{\"prompt\":\"16 * 5": 5225,
      "{\"prompt\":\"16 + (3": 5226,
      "{\"prompt\":\"16 * (2": 5227,
      "{\"prompt\":\"((24 * 7": 5228,
      "{\"prompt\":\"((25 + 5": 5229,
      "{\"prompt\":\"((24 - 9": 5230,
      "{\"prompt\":\"((20 + 3": 5231,
      "{\"prompt\":\"((20 + 9": 5232,
      "{\"prompt\":\"27 * 10": 5233,
      "{\"prompt\":\"27 - (6": 5234,
      "{\"prompt\":\"27 * (2": 5235,
      "{\"prompt\":\"70 * 7": 5236,
      "{\"prompt\":\"70 + 9": 5237,
      "{\"prompt\":\"70 - 4": 5238,
      "{\"prompt\":\"70 - (2": 5239,
      "{\"prompt\":\"70 - (3": 5240,
      "{\"prompt\":\"70 - (6": 5241,
      "{\"prompt\":\"70 * (5": 5242,
      "{\"prompt\":\"70 + 81": 5243,
      "{\"prompt\":\"70 - 36\",\"answer\":\"34\"}\n": 5244,
      "{\"prompt\":\"73 * 6": 5245,
      "{\"prompt\":\"73 * 5": 5246,
      "{\"prompt\":\"73 - (2": 5247,
      "{\"prompt\":\"73 - (4": 5248,
      "{\"prompt\":\"74 + 6": 5249,
      "{\"prompt\":\"74 - 1": 5250,
      "{\"prompt\":\"74 - (4": 5251,
      "{\"prompt\":\"74 * 24": 5252,
      "{\"prompt\":\"74 - 53\",\"answer\":\"21\"}\n": 5253,
      "{\"prompt\":\"33 * 4": 5254,
      "{\"prompt\":\"33 * 8": 5255,
      "{\"prompt\":\"33 + (6": 5256,
      "{\"prompt\":\"33 - 70": 5257,
      "768\"}\n": 5258,
      " + (99 - 1": 5259,
      "{\"prompt\":\"26 * 6": 5260,
      "{\"prompt\":\"26 * 10": 5261,
      "{\"prompt\":\"26 - (5": 5262,
      "{\"prompt\":\"26 - ((6": 5263,
      "{\"prompt\":\"43 + 7": 5264,
      "{\"prompt\":\"43 - 4": 5265,
      "{\"prompt\":\"43 * 10": 5266,
      "{\"prompt\":\"43 + 10": 5267,
      "{\"prompt\":\"43 - (9": 5268,
      "{\"prompt\":\"46 - 8": 5269,
      "{\"prompt\":\"46 + 6": 5270,
      "{\"prompt\":\"46 * 9": 5271,
      "{\"prompt\":\"46 - 3": 5272,
      "{\"prompt\":\"46 + 2": 5273,
      "{\"prompt\":\"46 * (8": 5274,
      "{\"prompt\":\"46 * (6": 5275,
      "{\"prompt\":\"46 * ((3": 5276,
      "{\"prompt\":\"46 - 28": 5277,
      "{\"prompt\":\"49 + 7": 5278,
      "{\"prompt\":\"49 + 1": 5279,
      "{\"prompt\":\"49 + (8": 5280,
      "{\"prompt\":\"49 + 95": 5281,
      "{\"prompt\":\"99 * 8": 5282,
      "{\"prompt\":\"99 * (2": 5283,
      "{\"prompt\":\"99 + (8": 5284,
      " * (23 + 7": 5285,
      " * (21 - 3": 5286,
      " * (28 * 7": 5287,
      " * (26 + 7": 5288,
      " * (20 + 6": 5289,
      " * (63 + 1": 5290,
      ")\",\"answer\":\"109\"}\n": 5291,
      ") - ((2": 5292,
      ") - ((47": 5293,
      ") - ((17": 5294,
      "778\"}\n": 5295,
      "775\"}\n": 5296,
      "771\"}\n": 5297,
      " - (89 + 8": 5298,
      " - (82 * 10": 5299,
      " - (89 + 7": 5300,
      "{\"prompt\":\"78 - (2": 5301,
      "{\"prompt\":\"78 + (5": 5302,
      "{\"prompt\":\"78 + 40": 5303,
      "{\"prompt\":\"30 + 6": 5304,
      "{\"prompt\":\"30 * 8": 5305,
      "{\"prompt\":\"30 * 5": 5306,
      "{\"prompt\":\"30 + (2": 5307,
      "{\"prompt\":\"30 - (5": 5308,
      "{\"prompt\":\"37 * 7": 5309,
      "{\"prompt\":\"37 + 7": 5310,
      "{\"prompt\":\"37 * 8": 5311,
      "{\"prompt\":\"37 + 2": 5312,
      "{\"prompt\":\"37 + (3": 5313,
      "{\"prompt\":\"94 * 4": 5314,
      "{\"prompt\":\"94 - 4": 5315,
      "{\"prompt\":\"94 * (8": 5316,
      "{\"prompt\":\"94 * (9": 5317,
      "{\"prompt\":\"94 + 71": 5318,
      "\",\"answer\":\"253\"}\n": 5319,
      "\",\"answer\":\"257\"}\n": 5320,
      "\",\"answer\":\"259\"}\n": 5321,
      "\",\"answer\":\"2584\"}\n": 5322,
      "{\"prompt\":\"88 * 7": 5323,
      "{\"prompt\":\"88 * 8": 5324,
      "{\"prompt\":\"88 * 5": 5325,
      "{\"prompt\":\"88 - 10": 5326,
      "{\"prompt\":\"88 + (5": 5327,
      "{\"prompt\":\"88 + (4": 5328,
      "{\"prompt\":\"79 + 7": 5329,
      "{\"prompt\":\"79 - 2": 5330,
      "{\"prompt\":\"79 - (9": 5331,
      "{\"prompt\":\"79 - (3": 5332,
      "{\"prompt\":\"79 + (5": 5333,
      "{\"prompt\":\"79 - 86": 5334,
      "{\"prompt\":\"90 - 8": 5335,
      "{\"prompt\":\"90 + 7": 5336,
      "{\"prompt\":\"90 * 4": 5337,
      "{\"prompt\":\"90 * 1": 5338,
      "{\"prompt\":\"90 * 10": 5339,
      "{\"prompt\":\"97 + 1": 5340,
      "{\"prompt\":\"97 - 83": 5341,
      "795\"}\n": 5342,
      "797\"}\n": 5343,
      " + (58 + 7": 5344,
      " + (57 + 8": 5345,
      " + (57 - 2": 5346,
      " + (59 - 9": 5347,
      "{\"prompt\":\"19 * 9": 5348,
      "{\"prompt\":\"19 - 6": 5349,
      "{\"prompt\":\"19 * 1": 5350,
      "{\"prompt\":\"19 - (13": 5351,
      "174\"}\n": 5352,
      " + (87 + 8": 5353,
      " + (80 * 8": 5354,
      " + (86 - 9": 5355,
      " + (87 * 9)\",\"answer\":\"8": 5356,
      "{\"prompt\":\"22 * 7": 5357,
      "{\"prompt\":\"22 - 1": 5358,
      "{\"prompt\":\"22 + 2": 5359,
      "{\"prompt\":\"22 - 91": 5360,
      "{\"prompt\":\"22 * 50": 5361,
      "{\"prompt\":\"22 - 36": 5362,
      "{\"prompt\":\"18 - 10": 5363,
      "{\"prompt\":\"18 + 10": 5364,
      "{\"prompt\":\"18 + 78": 5365,
      "{\"prompt\":\"18 - (14": 5366,
      "{\"prompt\":\"18 * 86": 5367,
      "{\"prompt\":\"98 * 2": 5368,
      "{\"prompt\":\"98 + 4": 5369,
      "{\"prompt\":\"98 + 9": 5370,
      "{\"prompt\":\"98 * 4": 5371,
      "{\"prompt\":\"98 - (9": 5372,
      "{\"prompt\":\"98 * 1\",\"answer\":\"98\"}\n": 5373,
      " * (31 - 5": 5374,
      " * (36 + 7": 5375,
      " * (30 + 9": 5376,
      "{\"prompt\":\"12 * 9": 5377,
      "{\"prompt\":\"12 * 4": 5378,
      "{\"prompt\":\"12 + 10": 5379,
      "{\"prompt\":\"12 - ((": 5380,
      "{\"prompt\":\"((51 * 6": 5381,
      "{\"prompt\":\"((58 * 7": 5382,
      "{\"prompt\":\"((54 * 7": 5383,
      "{\"prompt\":\"((55 + 5": 5384,
      "{\"prompt\":\"((57 - 3": 5385,
      "{\"prompt\":\"((53 - 2": 5386,
      "{\"prompt\":\"41 * 1": 5387,
      "{\"prompt\":\"41 * 5": 5388,
      "{\"prompt\":\"41 - (8": 5389,
      "{\"prompt\":\"41 - 69": 5390,
      "{\"prompt\":\"41 * ((9": 5391,
      "{\"prompt\":\"41 + 96": 5392,
      "{\"prompt\":\"31 * 2": 5393,
      "{\"prompt\":\"31 * 9": 5394,
      "{\"prompt\":\"31 - 1": 5395,
      "{\"prompt\":\"31 + ((6": 5396,
      "{\"prompt\":\"50 + 3": 5397,
      "{\"prompt\":\"50 + 9": 5398,
      "{\"prompt\":\"50 - 6": 5399,
      "{\"prompt\":\"50 - 2": 5400,
      "{\"prompt\":\"15 + 3": 5401,
      "{\"prompt\":\"15 - 6": 5402,
      "{\"prompt\":\"15 * 5": 5403,
      "{\"prompt\":\"15 - 78": 5404,
      "469\"}\n": 5405,
      "{\"prompt\":\"61 - 2": 5406,
      "{\"prompt\":\"61 * 1": 5407,
      "{\"prompt\":\"61 - (5": 5408,
      "{\"prompt\":\"61 - 84": 5409,
      "{\"prompt\":\"57 * 7": 5410,
      "{\"prompt\":\"57 * 4": 5411,
      "{\"prompt\":\"57 - 2": 5412,
      "{\"prompt\":\"57 - 96": 5413,
      "{\"prompt\":\"57 * ((3": 5414,
      "{\"prompt\":\"((8 * 3": 5415,
      "{\"prompt\":\"((83 + 7": 5416,
      "{\"prompt\":\"((89 + 10": 5417,
      "{\"prompt\":\"((88 + 9": 5418,
      "{\"prompt\":\"((85 - 3": 5419,
      "{\"prompt\":\"((84 - 6": 5420,
      "\",\"answer\":\"207\"}\n": 5421,
      "\",\"answer\":\"2000\"}\n": 5422,
      "\",\"answer\":\"2040\"}\n": 5423,
      "\",\"answer\":\"2021\"}\n": 5424,
      "{\"prompt\":\"82 + 3": 5425,
      "{\"prompt\":\"82 - 7": 5426,
      "{\"prompt\":\"82 + (8": 5427,
      "{\"prompt\":\"82 + 47": 5428,
      "{\"prompt\":\"52 - 3": 5429,
      "{\"prompt\":\"52 + 1": 5430,
      "{\"prompt\":\"52 - 81": 5431,
      "145\"}\n": 5432,
      "7880\"}\n": 5433,
      " * (92 + 5": 5434,
      " * (97 + 4": 5435,
      "719\"}\n": 5436,
      "733\"}\n": 5437,
      " + (45 - 8": 5438,
      " + (49 * 4": 5439,
      "{\"prompt\":\"32 - (9": 5440,
      "{\"prompt\":\"32 * (8": 5441,
      "{\"prompt\":\"32 + 80": 5442,
      "{\"prompt\":\"32 - 46": 5443,
      "{\"prompt\":\"32 + 8\",\"answer\":\"40\"}\n": 5444,
      ") + ((5": 5445,
      ") + ((71": 5446,
      "{\"prompt\":\"63 - 76": 5447,
      "{\"prompt\":\"63 + 87": 5448,
      "{\"prompt\":\"63 * 9\",\"answer\":\"5": 5449,
      "{\"prompt\":\"((66 + 5": 5450,
      "{\"prompt\":\"((65 * 3": 5451,
      ") * ((5": 5452,
      ") * ((10": 5453,
      ") * ((60": 5454,
      "187\"}\n": 5455,
      "189\"}\n": 5456,
      " * (55 + 9": 5457,
      " * (59 + 8": 5458,
      "1\",\"answer\":\"35\"}\n": 5459,
      ")\",\"answer\":\"137\"}\n": 5460,
      "755\"}\n": 5461,
      "751\"}\n": 5462,
      " - (41 * 4": 5463,
      ")\",\"answer\":\"163\"}\n": 5464,
      "6\",\"answer\":\"228\"}\n": 5465,
      "6\",\"answer\":\"288\"}\n": 5466,
      "705\"}\n": 5467,
      "163\"}\n": 5468,
      "1600\"}\n": 5469,
      "1200\"}\n": 5470,
      "151\"}\n": 5471,
      "1528\"}\n": 5472,
      "7\",\"answer\":\"37\"}\n": 5473,
      "7\",\"answer\":\"3201\"}\n": 5474,
      "6\",\"answer\":\"33\"}\n": 5475,
      "8\",\"answer\":\"32\"}\n": 5476,
      "8\",\"answer\":\"31\"}\n": 5477,
      "0\",\"answer\":\"24\"}\n": 5478,
      "0\",\"answer\":\"29\"}\n": 5479,
      "0\",\"answer\":\"216\"}\n": 5480,
      "5\",\"answer\":\"25\"}\n": 5481,
      "5\",\"answer\":\"23\"}\n": 5482,
      "5\",\"answer\":\"27\"}\n": 5483,
      "5\",\"answer\":\"260\"}\n": 5484,
      "5\",\"answer\":\"2250\"}\n": 5485,
      "7\",\"answer\":\"48\"}\n": 5486,
      "7\",\"answer\":\"41\"}\n": 5487,
      "7\",\"answer\":\"47\"}\n": 5488,
      "7\",\"answer\":\"432\"}\n": 5489,
      "7\",\"answer\":\"4465\"}\n": 5490,
      "6\",\"answer\":\"44\"}\n": 5491,
      "6\",\"answer\":\"42\"}\n": 5492,
      "6\",\"answer\":\"45\"}\n": 5493,
      "6\",\"answer\":\"49\"}\n": 5494,
      "6\",\"answer\":\"494\"}\n": 5495,
      "7\",\"answer\":\"50\"}\n": 5496,
      "7\",\"answer\":\"57\"}\n": 5497,
      "8\",\"answer\":\"49\"}\n": 5498,
      "8\",\"answer\":\"448\"}\n": 5499,
      " * (45 - 7": 5500,
      " * (42 - 7": 5501,
      "1 * 7) - 5": 5502,
      "{\"prompt\":\"(38 * 2": 5503,
      "{\"prompt\":\"(38 * 1": 5504,
      "0\",\"answer\":\"46\"}\n": 5505,
      "0\",\"answer\":\"43\"}\n": 5506,
      "0\",\"answer\":\"430\"}\n": 5507,
      "0\",\"answer\":\"4080\"}\n": 5508,
      "2\",\"answer\":\"58\"}\n": 5509,
      "2\",\"answer\":\"55\"}\n": 5510,
      "5\",\"answer\":\"52\"}\n": 5511,
      "5\",\"answer\":\"510\"}\n": 5512,
      "5\",\"answer\":\"5475\"}\n": 5513,
      "{\"prompt\":\"(55 + 8": 5514,
      "{\"prompt\":\"(55 * 3": 5515,
      "0\",\"answer\":\"38\"}\n": 5516,
      "0\",\"answer\":\"33\"}\n": 5517,
      "0\",\"answer\":\"37\"}\n": 5518,
      "0\",\"answer\":\"399\"}\n": 5519,
      "0\",\"answer\":\"3800\"}\n": 5520,
      "1\",\"answer\":\"56": 5521,
      "1\",\"answer\":\"56\"}\n": 5522,
      "1\",\"answer\":\"55\"}\n": 5523,
      "1\",\"answer\":\"51\"}\n": 5524,
      "1\",\"answer\":\"589\"}\n": 5525,
      "1\",\"answer\":\"583\"}\n": 5526,
      "3 - 1) + 4": 5527,
      "4\",\"answer\":\"20\"}\n": 5528,
      "4\",\"answer\":\"24\"}\n": 5529,
      "4\",\"answer\":\"270\"}\n": 5530,
      "4\",\"answer\":\"42\"}\n": 5531,
      "4\",\"answer\":\"48\"}\n": 5532,
      "4\",\"answer\":\"408\"}\n": 5533,
      "9\",\"answer\":\"37\"}\n": 5534,
      "9\",\"answer\":\"39\"}\n": 5535,
      "1\",\"answer\":\"24": 5536,
      "1\",\"answer\":\"28": 5537,
      "1\",\"answer\":\"20\"}\n": 5538,
      "1\",\"answer\":\"23\"}\n": 5539,
      "1\",\"answer\":\"27\"}\n": 5540,
      "5\",\"answer\":\"67\"}\n": 5541,
      "7\",\"answer\":\"21\"}\n": 5542,
      "7\",\"answer\":\"270\"}\n": 5543,
      "{\"prompt\":\"(50 + 6": 5544,
      "{\"prompt\":\"(50 - 6": 5545,
      "{\"prompt\":\"(59 - 6": 5546,
      "{\"prompt\":\"(59 - 4": 5547,
      "{\"prompt\":\"(30 + 8": 5548,
      "{\"prompt\":\"(30 * 10": 5549,
      "{\"prompt\":\"(12 - 2": 5550,
      "{\"prompt\":\"(12 - 6) + 2": 5551,
      "5\",\"answer\":\"35\"}\n": 5552,
      "5\",\"answer\":\"37\"}\n": 5553,
      "5\",\"answer\":\"3640\"}\n": 5554,
      "{\"prompt\":\"(35 * 6": 5555,
      "{\"prompt\":\"(35 + 7) * 3": 5556,
      "{\"prompt\":\"(26 + 7": 5557,
      "1 - 5) * 5": 5558,
      "1\",\"answer\":\"40\"}\n": 5559,
      "2 - 10 + 10": 5560,
      "2 - 10)\",\"answer\":\"62\"}\n": 5561,
      "5\",\"answer\":\"40\"}\n": 5562,
      "8\",\"answer\":\"62\"}\n": 5563,
      "8\",\"answer\":\"66\"}\n": 5564,
      "9\",\"answer\":\"44": 5565,
      "9\",\"answer\":\"43\"}\n": 5566,
      "2 - 6) + 3": 5567,
      "2\",\"answer\":\"44\"}\n": 5568,
      "2\",\"answer\":\"47\"}\n": 5569,
      "6 * 6) - 2": 5570,
      "9\",\"answer\":\"22\"}\n": 5571,
      "{\"prompt\":\"(20 * 7": 5572,
      "{\"prompt\":\"(20 * 2": 5573,
      ") + (97 * 1": 5574,
      "{\"prompt\":\"(78 * 7": 5575,
      "{\"prompt\":\"(64 - 4": 5576,
      "{\"prompt\":\"(49 * 4": 5577,
      "{\"prompt\":\"(49 - 3": 5578,
      "1 * 6) + 6": 5579,
      "1 * 6) * 5": 5580,
      "3 * 10\",\"answer\":\"13": 5581,
      "{\"prompt\":\"(96 * 2": 5582,
      "{\"prompt\":\"(96 * 3) + 4": 5583,
      "{\"prompt\":\"(48 - 1": 5584,
      "{\"prompt\":\"(48 - 7": 5585,
      "2\",\"answer\":\"69\"}\n": 5586,
      "3 + 7) * 6": 5587,
      "3 + 7) * 9": 5588,
      " + 47\",\"answer\":\"133\"}\n": 5589,
      "2000\"}\n": 5590,
      "2 * 2) * 8)\",\"answer\":\"-1": 5591,
      "3 + 9) - 8": 5592,
      "3 + 9) + 9": 5593,
      "3 + 10 + 9": 5594,
      "4\",\"answer\":\"54\"}\n": 5595,
      "4\",\"answer\":\"58\"}\n": 5596,
      "4\",\"answer\":\"55\"}\n": 5597,
      "5 + 4) * 7": 5598,
      "5 + 4) + 8": 5599,
      "9 + 10 - 3": 5600,
      "{\"prompt\":\"(16 + 5": 5601,
      "{\"prompt\":\"(16 * 3": 5602,
      "{\"prompt\":\"(16 * 8": 5603,
      "0\",\"answer\":\"58\"}\n": 5604,
      "0\",\"answer\":\"51\"}\n": 5605,
      "2 + 5)\",\"answer\":\"3": 5606,
      "2 + 5) - 3": 5607,
      "3 * 8) - 3": 5608,
      "4 + 7) - 1": 5609,
      "{\"prompt\":\"(76 * 3": 5610,
      "{\"prompt\":\"(87 - 3": 5611,
      "1 - 7) * 6": 5612,
      "2\",\"answer\":\"36\"}\n": 5613,
      "2\",\"answer\":\"39\"}\n": 5614,
      "2\",\"answer\":\"328\"}\n": 5615,
      "2 * 9 - 1": 5616,
      "3 * 6)\",\"answer\":\"11": 5617,
      "3\",\"answer\":\"58\"}\n": 5618,
      "3\",\"answer\":\"53\"}\n": 5619,
      "3\",\"answer\":\"57\"}\n": 5620,
      "8 + 8 - 3": 5621,
      " - 96\",\"answer\":\"-30\"}\n": 5622,
      "{\"prompt\":\"(27 - 9": 5623,
      "{\"prompt\":\"(46 + 7": 5624,
      "1 * 2) - 7": 5625,
      "1 * 9\",\"answer\":\"8": 5626,
      "1\",\"answer\":\"60\"}\n": 5627,
      "1\",\"answer\":\"65\"}\n": 5628,
      "1\",\"answer\":\"61\"}\n": 5629,
      "3 - 9) - 3": 5630,
      "4 * 4) - 10": 5631,
      "4 * 10\",\"answer\":\"9": 5632,
      "8 - 8 - 1": 5633,
      "9 + 9) + 4": 5634,
      "9 + 9) - 8": 5635,
      "9 + 9) * 6": 5636,
      " * 26 * 7": 5637,
      " + 94 * 6\",\"answer\":\"5": 5638,
      "1 - 8 + 5": 5639,
      "1 - 6) + 2": 5640,
      "1 * 5) - 8": 5641,
      "2 * 10) - 3": 5642,
      "4 - 2) * 7": 5643,
      " - 69 - 1": 5644,
      " - 69\",\"answer\":\"14\"}\n": 5645,
      "{\"prompt\":\"(57 * 1 + 6": 5646,
      "{\"prompt\":\"(17 * 1": 5647,
      "{\"prompt\":\"(80 + 4": 5648,
      "2 * 6) - 9": 5649,
      "3 - 4) * 4": 5650,
      "3\",\"answer\":\"42\"}\n": 5651,
      "3\",\"answer\":\"46\"}\n": 5652,
      "4 + 4) * 2": 5653,
      "4 * 3) * 9": 5654,
      "5 * 9)\",\"answer\":\"-": 5655,
      "5 * 9) + 8": 5656,
      "5 - 10) + 6": 5657,
      "6 + 1 + 4": 5658,
      "7\",\"answer\":\"62\"}\n": 5659,
      "8 + 5) + 6": 5660,
      "8 - 4) - 7": 5661,
      " + 70\",\"answer\":\"135\"}\n": 5662,
      " - 95 - 2": 5663,
      ") + (64 * 1": 5664,
      ") + (80 - 8": 5665,
      "{\"prompt\":\"(70 * 1": 5666,
      "2\",\"answer\":\"7176\"}\n": 5667,
      "3 + 3) + 8": 5668,
      "4 * 7\",\"answer\":\"5": 5669,
      "5 + 5 + 2": 5670,
      "6 + 3) - 5": 5671,
      "8 * 9) - 2": 5672,
      "9 * 10 + 9": 5673,
      " + 56 - 8": 5674,
      " + 75\",\"answer\":\"154\"}\n": 5675,
      "{\"prompt\":\"(40 * 5": 5676,
      "1 - 4 + 3": 5677,
      "4 * 9) + 2": 5678,
      "4 * 9) - 10": 5679,
      "4 * 1) - 4": 5680,
      "5 + 6) - 2": 5681,
      "7 + 2 + 9": 5682,
      "7 + 2) - 9": 5683,
      "8 + 1 * 4": 5684,
      "{\"prompt\":\"(10 * 1": 5685,
      ") * (21 * 10": 5686,
      ") * (87 * 5": 5687,
      "3 - 3 - 6": 5688,
      "3 - 3) - 3": 5689,
      "3 * 5) + 4": 5690,
      "3\",\"answer\":\"81\"}\n": 5691,
      "3\",\"answer\":\"87\"}\n": 5692,
      "4 - 1) + 4": 5693,
      "9 - 5) - 7": 5694,
      "9\",\"answer\":\"65\"}\n": 5695,
      " - 87 + 7": 5696,
      "0 - 4) + 4": 5697,
      "1 + 5) - 6": 5698,
      "1 + 5) * 7": 5699,
      "6 * 8) + 9": 5700,
      "6 * 8) + 5": 5701,
      "6 * 8) * 9": 5702,
      "9 * 9\",\"answer\":\"5": 5703,
      ")\",\"answer\":\"15456\"}\n": 5704,
      " - 15\",\"answer\":\"19\"}\n": 5705,
      " - 15\",\"answer\":\"78\"}\n": 5706,
      "2 - 1)\",\"answer\":\"2": 5707,
      "3\",\"answer\":\"142\"}\n": 5708,
      "4 + 2) - 2": 5709,
      "6 + 4 + 5": 5710,
      "9 * 2) + 3": 5711,
      "9 - 4) - 1": 5712,
      ")\",\"answer\":\"1950\"}\n": 5713,
      ")\",\"answer\":\"1944\"}\n": 5714,
      " + 100\",\"answer\":\"122\"}\n": 5715,
      " + ((82 + 1": 5716,
      "3 - 8) - 9": 5717,
      "3\",\"answer\":\"67\"}\n": 5718,
      "6 + 6) * 4": 5719,
      "6 + 6)\",\"answer\":\"-45\"}\n": 5720,
      "7\",\"answer\":\"148\"}\n": 5721,
      "8 - 10) * 7": 5722,
      "{\"prompt\":\"(90 * 4": 5723,
      "{\"prompt\":\"(90 - 10": 5724,
      " + ((56 * 7": 5725,
      "0 * 8) * 10": 5726,
      "2 - 8) - 5": 5727,
      "2 * 3) * 9": 5728,
      "4 * 6) + 7": 5729,
      "5 * 8 + 6": 5730,
      "5 * 8) - 10": 5731,
      "6 - 8 + 2": 5732,
      "6 * 4) * 1": 5733,
      "7 - 8 * 7": 5734,
      "7 - 8) - 3": 5735,
      "7 - 8) * 8": 5736,
      "7 + 3) - 3": 5737,
      "8 * 1) * 6\",\"answer\":\"4": 5738,
      "8 * 5\",\"answer\":\"4": 5739,
      "9 + 7) - 5": 5740,
      "9 - 7) + 2": 5741,
      "\",\"answer\":\"2376\"}\n": 5742,
      " - 85\",\"answer\":\"-36\"}\n": 5743,
      ")\",\"answer\":\"1428\"}\n": 5744,
      " - 90\",\"answer\":\"-57\"}\n": 5745,
      " - 62\",\"answer\":\"-3\"}\n": 5746,
      ")\",\"answer\":\"-504\"}\n": 5747,
      ")\",\"answer\":\"-522\"}\n": 5748,
      ")\",\"answer\":\"-569\"}\n": 5749,
      " * 50 - 8": 5750,
      ")\",\"answer\":\"2045\"}\n": 5751,
      " * ((88 + 7": 5752,
      "4 + 8) - 3": 5753,
      "5 * 2) - 3": 5754,
      " * 70\",\"answer\":\"6": 5755,
      " + 91\",\"answer\":\"125\"}\n": 5756,
      ")\",\"answer\":\"-425\"}\n": 5757,
      ")\",\"answer\":\"235": 5758,
      " * ((24 + 5": 5759,
      "5 + 3) - 5": 5760,
      "7 * 1) * 1": 5761,
      "8 - 2) + 7": 5762,
      " - (78 + 6)\",\"answer\":\"-": 5763,
      " - 80\",\"answer\":\"-5\"}\n": 5764,
      "\",\"answer\":\"302": 5765,
      " - 39\",\"answer\":\"-37\"}\n": 5766,
      " - 78\",\"answer\":\"-64\"}\n": 5767,
      "2 - 7) + 4": 5768,
      "6 - 4) - 6": 5769,
      "7 - 2) - 8": 5770,
      "7 - 7) - 6": 5771,
      "7 - 7) - 3": 5772,
      " + (19 - 7": 5773,
      " * 96\",\"answer\":\"7": 5774,
      " * 96\",\"answer\":\"9": 5775,
      " - 58\",\"answer\":\"-10\"}\n": 5776,
      " - 74\",\"answer\":\"-41\"}\n": 5777,
      ") * (68 - 3": 5778,
      " - ((26 - 9": 5779,
      "3\",\"answer\":\"185\"}\n": 5780,
      "3\",\"answer\":\"1863\"}\n": 5781,
      "7 + 9) - 7": 5782,
      "7 * 9 + 10": 5783,
      "\",\"answer\":\"-887\"}\n": 5784,
      "\",\"answer\":\"-107\"}\n": 5785,
      " - 82\",\"answer\":\"14\"}\n": 5786,
      " + 71\",\"answer\":\"109\"}\n": 5787,
      " * 97\",\"answer\":\"9": 5788,
      " * 87 - 5": 5789,
      " - 63\",\"answer\":\"-5\"}\n": 5790,
      " - 63\",\"answer\":\"-3\"}\n": 5791,
      " - 46\",\"answer\":\"-31\"}\n": 5792,
      ")\",\"answer\":\"3264\"}\n": 5793,
      ")\",\"answer\":\"39672\"}\n": 5794,
      "7 * 7\",\"answer\":\"29": 5795,
      "7 - 4) + 5": 5796,
      "7\",\"answer\":\"191\"}\n": 5797,
      " * 21\",\"answer\":\"20": 5798,
      " + 36\",\"answer\":\"88\"}\n": 5799,
      " * 40\",\"answer\":\"-3": 5800,
      " * 44\",\"answer\":\"-1": 5801,
      " * 44\",\"answer\":\"25": 5802,
      " - 59\",\"answer\":\"4\"}\n": 5803,
      " + 20 * 7": 5804,
      "0 + 8)\",\"answer\":\"4": 5805,
      "6 * 3 + 6": 5806,
      "7 + 5) + 2": 5807,
      " * (72 + 3": 5808,
      " * (40 * 7": 5809,
      " - 8)\",\"answer\":\"12\"}\n": 5810,
      " - 8)\",\"answer\":\"15\"}\n": 5811,
      "{\"prompt\":\"((13 + 8) + 9": 5812,
      " * 31\",\"answer\":\"20": 5813,
      " * 32\",\"answer\":\"18": 5814,
      " - 30\",\"answer\":\"-28\"}\n": 5815,
      " - 47\",\"answer\":\"-26\"}\n": 5816,
      "\",\"answer\":\"5040\"}\n": 5817,
      "\",\"answer\":\"5056\"}\n": 5818,
      "5\",\"answer\":\"1995\"}\n": 5819,
      "7 * 4) * 3": 5820,
      " + (76 * 10)\",\"answer\":\"8": 5821,
      " * (18 * 2": 5822,
      " * (16 + 7)\",\"answer\":\"10": 5823,
      " + 4\",\"answer\":\"379": 5824,
      " - 11\",\"answer\":\"4\"}\n": 5825,
      " - 27\",\"answer\":\"18\"}\n": 5826,
      " + 18\",\"answer\":\"77\"}\n": 5827,
      " * 100\",\"answer\":\"9": 5828,
      ")\",\"answer\":\"4042\"}\n": 5829,
      "\",\"answer\":\"2496\"}\n": 5830,
      " + (71 + 5)\",\"answer\":\"1": 5831,
      " * (10 - 5": 5832,
      " * (17 - 10": 5833,
      " * 22\",\"answer\":\"16": 5834,
      " * 2) - 63": 5835,
      " + 33\",\"answer\":\"109\"}\n": 5836,
      " * 3 * 4 - 1": 5837,
      " + 16\",\"answer\":\"105\"}\n": 5838,
      "\",\"answer\":\"4683\"}\n": 5839,
      "{\"prompt\":\"51 * 80\",\"answer\":\"4080\"}\n": 5840,
      " + (13 * 10": 5841,
      " * (73 - 2": 5842,
      " - 8 * 82\",\"answer\":\"-5": 5843,
      " - 19\",\"answer\":\"-13\"}\n": 5844,
      " * 41\",\"answer\":\"35": 5845,
      " + 13\",\"answer\":\"96\"}\n": 5846,
      " - 44\",\"answer\":\"-32\"}\n": 5847,
      ") * 38\",\"answer\":\"1178\"}\n": 5848,
      ")\",\"answer\":\"4620\"}\n": 5849,
      "{\"prompt\":\"54 * 43\",\"answer\":\"23": 5850,
      " + (12 + 9": 5851,
      " + 4 * 75\",\"answer\":\"3": 5852,
      " - 9) + (71": 5853,
      " - 53\",\"answer\":\"-42\"}\n": 5854,
      " * 8) + 5 + 5": 5855,
      ")\",\"answer\":\"3196\"}\n": 5856,
      ") - 73\",\"answer\":\"-32\"}\n": 5857,
      "{\"prompt\":\"17 * 1\",\"answer\":\"17\"}\n": 5858,
      "{\"prompt\":\"13 - 14\",\"answer\":\"-1\"}\n": 5859,
      "3\",\"answer\":\"2490\"}\n": 5860,
      " * 7) - 10 + 5": 5861,
      " * 9 - 1 - 3": 5862,
      " * 3\",\"answer\":\"1368\"}\n": 5863,
      " * 82\",\"answer\":\"22": 5864,
      " * 11\",\"answer\":\"10": 5865,
      ")\",\"answer\":\"-713\"}\n": 5866,
      "{\"prompt\":\"(69 - 5) - 4": 5867,
      ") * 6)\",\"answer\":\"559\"}\n": 5868,
      "{\"prompt\":\"34 + 19\",\"answer\":\"53\"}\n": 5869,
      "{\"prompt\":\"86 * 93\",\"answer\":\"79": 5870,
      "{\"prompt\":\"11 + 3\",\"answer\":\"14\"}\n": 5871,
      "{\"prompt\":\"29 * 8\",\"answer\":\"232\"}\n": 5872,
      "{\"prompt\":\"76 - 52\",\"answer\":\"24\"}\n": 5873,
      "{\"prompt\":\"20 * 64\",\"answer\":\"12": 5874,
      "{\"prompt\":\"16 * 27\",\"answer\":\"432\"}\n": 5875,
      "{\"prompt\":\"43 - 15\",\"answer\":\"28\"}\n": 5876,
      "4\",\"answer\":\"3008\"}\n": 5877,
      "4\",\"answer\":\"2074\"}\n": 5878,
      "{\"prompt\":\"6 + 1\",\"answer\":\"7\"}\n": 5879,
      " * 7)\",\"answer\":\"513\"}\n": 5880,
      " * 4 + 68\",\"answer\":\"4": 5881,
      " + 24\",\"answer\":\"64\"}\n": 5882,
      "{\"prompt\":\"(19 - 8) + 3": 5883,
      "{\"prompt\":\"(83 * 6) - 3": 5884,
      ") - 47\",\"answer\":\"-22\"}\n": 5885,
      "{\"prompt\":\"42 - 57\",\"answer\":\"-15\"}\n": 5886,
      "{\"prompt\":\"10 * 27\",\"answer\":\"270\"}\n": 5887,
      "{\"prompt\":\"16 + 27\",\"answer\":\"43\"}\n": 5888,
      "1\",\"answer\":\"2542\"}\n": 5889,
      "{\"prompt\":\"8 + 99\",\"answer\":\"107\"}\n": 5890,
      "{\"prompt\":\"6 + 59\",\"answer\":\"65\"}\n": 5891,
      "{\"prompt\":\"7 - 52\",\"answer\":\"-45\"}\n": 5892,
      "{\"prompt\":\"3 - 77\",\"answer\":\"-74\"}\n": 5893,
      "{\"prompt\":\"3 - 47\",\"answer\":\"-44\"}\n": 5894,
      "{\"prompt\":\"5 + 66\",\"answer\":\"71\"}\n": 5895,
      "{\"prompt\":\"5 - 35\",\"answer\":\"-30\"}\n": 5896,
      "{\"prompt\":\"5 - 45\",\"answer\":\"-40\"}\n": 5897,
      " - 25\",\"answer\":\"50\"}\n": 5898,
      " - 4) * 36": 5899,
      "{\"prompt\":\"(51 + 1) * 7": 5900,
      ") * 79\",\"answer\":\"1659\"}\n": 5901,
      "{\"prompt\":\"62 - 92\",\"answer\":\"-30\"}\n": 5902,
      "{\"prompt\":\"62 * 29\",\"answer\":\"1798\"}\n": 5903,
      "{\"prompt\":\"95 + 50\",\"answer\":\"145\"}\n": 5904,
      "{\"prompt\":\"95 * 26\",\"answer\":\"2470\"}\n": 5905,
      "{\"prompt\":\"95 - 59\",\"answer\":\"36\"}\n": 5906,
      "{\"prompt\":\"38 - 97\",\"answer\":\"-59\"}\n": 5907,
      "{\"prompt\":\"38 * 50\",\"answer\":\"1900\"}\n": 5908,
      "{\"prompt\":\"38 * 91\",\"answer\":\"3458\"}\n": 5909,
      "{\"prompt\":\"93 * 21\",\"answer\":\"1953\"}\n": 5910,
      "{\"prompt\":\"44 - 88\",\"answer\":\"-44\"}\n": 5911,
      "{\"prompt\":\"44 - 55\",\"answer\":\"-11\"}\n": 5912,
      "{\"prompt\":\"71 * 3\",\"answer\":\"213\"}\n": 5913,
      "{\"prompt\":\"71 * 60\",\"answer\":\"4260\"}\n": 5914,
      "{\"prompt\":\"17 + 86\",\"answer\":\"103\"}\n": 5915,
      "{\"prompt\":\"34 + 76\",\"answer\":\"110\"}\n": 5916,
      "{\"prompt\":\"81 + 32\",\"answer\":\"113\"}\n": 5917,
      "{\"prompt\":\"83 + 91\",\"answer\":\"174\"}\n": 5918,
      "{\"prompt\":\"83 - 78\",\"answer\":\"5\"}\n": 5919,
      "{\"prompt\":\"36 - 84\",\"answer\":\"-48\"}\n": 5920,
      "{\"prompt\":\"36 * 67\",\"answer\":\"2412\"}\n": 5921,
      "{\"prompt\":\"86 - 95\",\"answer\":\"-9\"}\n": 5922,
      "{\"prompt\":\"86 - 73\",\"answer\":\"13\"}\n": 5923,
      "{\"prompt\":\"86 + 18\",\"answer\":\"104\"}\n": 5924,
      "{\"prompt\":\"86 - 16\",\"answer\":\"70\"}\n": 5925,
      "{\"prompt\":\"69 - 85\",\"answer\":\"-16\"}\n": 5926,
      "{\"prompt\":\"77 * 43\",\"answer\":\"3311\"}\n": 5927,
      "{\"prompt\":\"67 + 59\",\"answer\":\"126\"}\n": 5928,
      "{\"prompt\":\"45 + 30\",\"answer\":\"75\"}\n": 5929,
      "{\"prompt\":\"87 - 82\",\"answer\":\"5\"}\n": 5930,
      "{\"prompt\":\"87 - 66\",\"answer\":\"21\"}\n": 5931,
      "{\"prompt\":\"23 - 71\",\"answer\":\"-48\"}\n": 5932,
      "{\"prompt\":\"56 - 87\",\"answer\":\"-31\"}\n": 5933,
      "{\"prompt\":\"56 - 97\",\"answer\":\"-41\"}\n": 5934,
      "{\"prompt\":\"24 + 62\",\"answer\":\"86\"}\n": 5935,
      "{\"prompt\":\"28 * 50\",\"answer\":\"1400\"}\n": 5936,
      "{\"prompt\":\"28 + 55\",\"answer\":\"83\"}\n": 5937,
      "{\"prompt\":\"68 + 78\",\"answer\":\"146\"}\n": 5938,
      "{\"prompt\":\"68 * 93\",\"answer\":\"6324\"}\n": 5939,
      "{\"prompt\":\"20 * 100\",\"answer\":\"2000\"}\n": 5940,
      "{\"prompt\":\"75 - 77\",\"answer\":\"-2\"}\n": 5941,
      "{\"prompt\":\"96 - 92\",\"answer\":\"4\"}\n": 5942,
      "{\"prompt\":\"96 - 49\",\"answer\":\"47\"}\n": 5943,
      "{\"prompt\":\"10 * 18\",\"answer\":\"180\"}\n": 5944,
      "{\"prompt\":\"48 + 100\",\"answer\":\"148\"}\n": 5945,
      "{\"prompt\":\"48 * 17\",\"answer\":\"816\"}\n": 5946,
      "{\"prompt\":\"35 + 89\",\"answer\":\"124\"}\n": 5947,
      "{\"prompt\":\"35 * 23\",\"answer\":\"805\"}\n": 5948,
      "{\"prompt\":\"39 - 64\",\"answer\":\"-25\"}\n": 5949,
      "{\"prompt\":\"39 + 31\",\"answer\":\"70\"}\n": 5950,
      "{\"prompt\":\"59 * 94\",\"answer\":\"5546\"}\n": 5951,
      "{\"prompt\":\"85 + 30\",\"answer\":\"115\"}\n": 5952,
      "{\"prompt\":\"66 + 35\",\"answer\":\"101\"}\n": 5953,
      "{\"prompt\":\"66 * 50\",\"answer\":\"3300\"}\n": 5954,
      "{\"prompt\":\"14 - 70\",\"answer\":\"-56\"}\n": 5955,
      "{\"prompt\":\"14 * 88\",\"answer\":\"1232\"}\n": 5956,
      "{\"prompt\":\"70 + 81\",\"answer\":\"151\"}\n": 5957,
      "{\"prompt\":\"74 * 24\",\"answer\":\"1776\"}\n": 5958,
      "{\"prompt\":\"46 - 28\",\"answer\":\"18\"}\n": 5959,
      "{\"prompt\":\"49 + 95\",\"answer\":\"144\"}\n": 5960,
      "{\"prompt\":\"94 + 71\",\"answer\":\"165\"}\n": 5961,
      "{\"prompt\":\"79 - 86\",\"answer\":\"-7\"}\n": 5962,
      "{\"prompt\":\"97 - 83\",\"answer\":\"14\"}\n": 5963,
      "{\"prompt\":\"22 - 91\",\"answer\":\"-69\"}\n": 5964,
      "{\"prompt\":\"22 * 50\",\"answer\":\"1100\"}\n": 5965,
      "{\"prompt\":\"22 - 36\",\"answer\":\"-14\"}\n": 5966,
      "{\"prompt\":\"18 + 78\",\"answer\":\"96\"}\n": 5967,
      "{\"prompt\":\"18 * 86\",\"answer\":\"1548\"}\n": 5968,
      "{\"prompt\":\"41 - 69\",\"answer\":\"-28\"}\n": 5969,
      "{\"prompt\":\"41 + 96\",\"answer\":\"137\"}\n": 5970,
      "{\"prompt\":\"15 - 78\",\"answer\":\"-63\"}\n": 5971,
      "{\"prompt\":\"57 - 96\",\"answer\":\"-39\"}\n": 5972,
      "{\"prompt\":\"52 - 81\",\"answer\":\"-29\"}\n": 5973,
      "{\"prompt\":\"32 + 80\",\"answer\":\"112\"}\n": 5974,
      "{\"prompt\":\"32 - 46\",\"answer\":\"-14\"}\n": 5975,
      "{\"prompt\":\"63 - 76\",\"answer\":\"-13\"}\n": 5976,
      "{\"prompt\":\"63 + 87\",\"answer\":\"150\"}\n": 5977,
      "{\"prompt\":\"63 * 9\",\"answer\":\"567\"}\n": 5978,
      "{\"prompt\":\"54 * 43\",\"answer\":\"2322\"}\n": 5979,
      "{\"prompt\":\"86 * 93\",\"answer\":\"7998\"}\n": 5980,
      "{\"prompt\":\"20 * 64\",\"answer\":\"1280\"}\n": 5981,
      "0 + 2": 5982,
      "0 * 10": 5983,
      "0\",\"answer\":\"-1": 5984,
      "0\",\"answer\":\"11": 5985,
      "020\"}\n": 5986,
      "060\"}\n": 5987,
      "044\"}\n": 5988,
      "028\"}\n": 5989,
      "048\"}\n": 5990,
      "0\",\"answer\":\"25": 5991,
      "024\"}\n": 5992,
      "072\"}\n": 5993,
      "008\"}\n": 5994,
      "094\"}\n": 5995,
      "046\"}\n": 5996,
      "076\"}\n": 5997,
      "095\"}\n": 5998,
      "082\"}\n": 5999,
      "081\"}\n": 6000,
      "064\"}\n": 6001,
      "022\"}\n": 6002,
      "083\"}\n": 6003,
      "074\"}\n": 6004,
      "084\"}\n": 6005,
      "078\"}\n": 6006,
      "018\"}\n": 6007,
      "053\"}\n": 6008,
      "067\"}\n": 6009,
      "093\"}\n": 6010,
      "005\"}\n": 6011,
      "019\"}\n": 6012,
      "097\"}\n": 6013,
      "038\"}\n": 6014,
      "071\"}\n": 6015,
      "039\"}\n": 6016,
      "051\"}\n": 6017,
      "065\"}\n": 6018,
      "0\",\"answer\":\"-14\"}\n": 6019,
      "0\",\"answer\":\"-44\"}\n": 6020,
      "0\",\"answer\":\"-7\"}\n": 6021,
      "0\",\"answer\":\"132\"}\n": 6022,
      "0\",\"answer\":\"83\"}\n": 6023,
      "0\",\"answer\":\"92\"}\n": 6024,
      "0\",\"answer\":\"81\"}\n": 6025,
      "0\",\"answer\":\"-16\"}\n": 6026,
      "0\",\"answer\":\"135\"}\n": 6027,
      "0\",\"answer\":\"-26\"}\n": 6028,
      "0\",\"answer\":\"-8\"}\n": 6029,
      "0\",\"answer\":\"156\"}\n": 6030,
      "0\",\"answer\":\"62\"}\n": 6031,
      "0\",\"answer\":\"134\"}\n": 6032,
      "0500\"}\n": 6033,
      "0\",\"answer\":\"-69\"}\n": 6034,
      "0 * 2 + 1": 6035,
      "0 * 2) - 6": 6036,
      "0264\"}\n": 6037,
      "0 * 10 * 10": 6038,
      "0960\"}\n": 6039,
      "0 * 2)\",\"answer\":\"-1": 6040,
      "0728\"}\n": 6041,
      "0\",\"answer\":\"-98\"}\n": 6042,
      "0 * 10) + 5": 6043,
      "0\",\"answer\":\"1350\"}\n": 6044,
      "0\",\"answer\":\"-485\"}\n": 6045,
      "1\",\"answer\":\"9": 6046,
      "1\",\"answer\":\"-3": 6047,
      "1\",\"answer\":\"15": 6048,
      "180\"}\n": 6049,
      "1\",\"answer\":\"17": 6050,
      "1\",\"answer\":\"18": 6051,
      "1\",\"answer\":\"-6": 6052,
      "124\"}\n": 6053,
      "130\"}\n": 6054,
      "1\",\"answer\":\"20": 6055,
      "1\",\"answer\":\"71\"}\n": 6056,
      "1\",\"answer\":\"8\"}\n": 6057,
      "1\",\"answer\":\"104\"}\n": 6058,
      "1\",\"answer\":\"112\"}\n": 6059,
      "1\",\"answer\":\"-13\"}\n": 6060,
      "1\",\"answer\":\"-1\"}\n": 6061,
      "1\",\"answer\":\"-23\"}\n": 6062,
      "1\",\"answer\":\"139\"}\n": 6063,
      "1\",\"answer\":\"154\"}\n": 6064,
      "1\",\"answer\":\"-41\"}\n": 6065,
      "1\",\"answer\":\"163\"}\n": 6066,
      "1\",\"answer\":\"-69\"}\n": 6067,
      "1\",\"answer\":\"-52\"}\n": 6068,
      "1\",\"answer\":\"168\"}\n": 6069,
      "1\",\"answer\":\"-71\"}\n": 6070,
      "1\",\"answer\":\"-186\"}\n": 6071,
      "2\",\"answer\":\"-2": 6072,
      "2\",\"answer\":\"14": 6073,
      "2\",\"answer\":\"-3": 6074,
      "2\",\"answer\":\"-4": 6075,
      "2\",\"answer\":\"18": 6076,
      "228\"}\n": 6077,
      "256\"}\n": 6078,
      "236\"}\n": 6079,
      "272\"}\n": 6080,
      "294\"}\n": 6081,
      "290\"}\n": 6082,
      "298\"}\n": 6083,
      "213\"}\n": 6084,
      "282\"}\n": 6085,
      "281\"}\n": 6086,
      "278\"}\n": 6087,
      "266\"}\n": 6088,
      "2\",\"answer\":\"72\"}\n": 6089,
      "259\"}\n": 6090,
      "238\"}\n": 6091,
      "229\"}\n": 6092,
      "251\"}\n": 6093,
      "2\",\"answer\":\"18\"}\n": 6094,
      "2\",\"answer\":\"71\"}\n": 6095,
      "2\",\"answer\":\"97\"}\n": 6096,
      "2\",\"answer\":\"85\"}\n": 6097,
      "299\"}\n": 6098,
      "2\",\"answer\":\"-10\"}\n": 6099,
      "2\",\"answer\":\"82\"}\n": 6100,
      "2\",\"answer\":\"88\"}\n": 6101,
      "2\",\"answer\":\"6\"}\n": 6102,
      "2\",\"answer\":\"-12\"}\n": 6103,
      "2\",\"answer\":\"119\"}\n": 6104,
      "2\",\"answer\":\"104\"}\n": 6105,
      "2\",\"answer\":\"109\"}\n": 6106,
      "2400\"}\n": 6107,
      "2\",\"answer\":\"99\"}\n": 6108,
      "2\",\"answer\":\"81\"}\n": 6109,
      "2\",\"answer\":\"126\"}\n": 6110,
      "2\",\"answer\":\"-47\"}\n": 6111,
      "2\",\"answer\":\"-56\"}\n": 6112,
      "2\",\"answer\":\"174\"}\n": 6113,
      "2440\"}\n": 6114,
      "2500\"}\n": 6115,
      "2296\"}\n": 6116,
      "2\",\"answer\":\"157\"}\n": 6117,
      "2\",\"answer\":\"1176\"}\n": 6118,
      "2960\"}\n": 6119,
      "2\",\"answer\":\"1584\"}\n": 6120,
      "2\",\"answer\":\"1104\"}\n": 6121,
      "2144\"}\n": 6122,
      "2\",\"answer\":\"2590\"}\n": 6123,
      "2224\"}\n": 6124,
      "2752\"}\n": 6125,
      "2197\"}\n": 6126,
      "39": 6127,
      "3\",\"answer\":\"12": 6128,
      "3\",\"answer\":\"15": 6129,
      "340\"}\n": 6130,
      "328\"}\n": 6131,
      "356\"}\n": 6132,
      "3\",\"answer\":\"25": 6133,
      "330\"}\n": 6134,
      "372\"}\n": 6135,
      "308\"}\n": 6136,
      "390\"}\n": 6137,
      "345\"}\n": 6138,
      "395\"}\n": 6139,
      "347\"}\n": 6140,
      "327\"}\n": 6141,
      "354\"}\n": 6142,
      "368\"}\n": 6143,
      "391\"}\n": 6144,
      "378\"}\n": 6145,
      "318\"}\n": 6146,
      "366\"}\n": 6147,
      "321\"}\n": 6148,
      "393\"}\n": 6149,
      "319\"}\n": 6150,
      "323\"}\n": 6151,
      "335\"}\n": 6152,
      "3\",\"answer\":\"94\"}\n": 6153,
      "362\"}\n": 6154,
      "361\"}\n": 6155,
      "369\"}\n": 6156,
      "399\"}\n": 6157,
      "3\",\"answer\":\"98\"}\n": 6158,
      "3\",\"answer\":\"-44\"}\n": 6159,
      "302\"}\n": 6160,
      "3\",\"answer\":\"108\"}\n": 6161,
      "35 - 10": 6162,
      "3\",\"answer\":\"6\"}\n": 6163,
      "3\",\"answer\":\"90\"}\n": 6164,
      "3\",\"answer\":\"-21\"}\n": 6165,
      "3\",\"answer\":\"119\"}\n": 6166,
      "3\",\"answer\":\"109\"}\n": 6167,
      "3400\"}\n": 6168,
      "3\",\"answer\":\"10\"}\n": 6169,
      "3\",\"answer\":\"103\"}\n": 6170,
      "3\",\"answer\":\"114\"}\n": 6171,
      "3\",\"answer\":\"113\"}\n": 6172,
      "36 - 6": 6173,
      "3600\"}\n": 6174,
      "3\",\"answer\":\"154\"}\n": 6175,
      "3\",\"answer\":\"-19\"}\n": 6176,
      "3\",\"answer\":\"128\"}\n": 6177,
      "3\",\"answer\":\"137\"}\n": 6178,
      "3\",\"answer\":\"-34\"}\n": 6179,
      "3\",\"answer\":\"-50\"}\n": 6180,
      "3\",\"answer\":\"-53\"}\n": 6181,
      "3\",\"answer\":\"165\"}\n": 6182,
      "3\",\"answer\":\"169\"}\n": 6183,
      "3\",\"answer\":\"157\"}\n": 6184,
      "3000\"}\n": 6185,
      "3288\"}\n": 6186,
      "3940\"}\n": 6187,
      "3450\"}\n": 6188,
      "3050\"}\n": 6189,
      "3030\"}\n": 6190,
      "436\"}\n": 6191,
      "4\",\"answer\":\"25": 6192,
      "424\"}\n": 6193,
      "492\"}\n": 6194,
      "445\"}\n": 6195,
      "414\"}\n": 6196,
      "434\"}\n": 6197,
      "411\"}\n": 6198,
      "417\"}\n": 6199,
      "415\"}\n": 6200,
      "435\"}\n": 6201,
      "4\",\"answer\":\"-10\"}\n": 6202,
      "4\",\"answer\":\"-14\"}\n": 6203,
      "4\",\"answer\":\"-5\"}\n": 6204,
      "4\",\"answer\":\"-2\"}\n": 6205,
      "4\",\"answer\":\"0\"}\n": 6206,
      "4\",\"answer\":\"76\"}\n": 6207,
      "4\",\"answer\":\"120\"}\n": 6208,
      "4800\"}\n": 6209,
      "4\",\"answer\":\"79\"}\n": 6210,
      "4\",\"answer\":\"141\"}\n": 6211,
      "4\",\"answer\":\"-19\"}\n": 6212,
[...]
